<PAD>	0
<UNK>	0
<EOS>	0
<EOT>	0
<0x00>	0
<0x01>	0
<0x02>	0
<0x03>	0
<0x04>	0
<0x05>	0
<0x06>	0
<0x07>	0
<0x08>	0
<0x09>	0
<0x0A>	0
<0x0B>	0
<0x0C>	0
<0x0D>	0
<0x0E>	0
<0x0F>	0
<0x10>	0
<0x11>	0
<0x12>	0
<0x13>	0
<0x14>	0
<0x15>	0
<0x16>	0
<0x17>	0
<0x18>	0
<0x19>	0
<0x1A>	0
<0x1B>	0
<0x1C>	0
<0x1D>	0
<0x1E>	0
<0x1F>	0
<0x20>	0
<0x21>	0
<0x22>	0
<0x23>	0
<0x24>	0
<0x25>	0
<0x26>	0
<0x27>	0
<0x28>	0
<0x29>	0
<0x2A>	0
<0x2B>	0
<0x2C>	0
<0x2D>	0
<0x2E>	0
<0x2F>	0
<0x30>	0
<0x31>	0
<0x32>	0
<0x33>	0
<0x34>	0
<0x35>	0
<0x36>	0
<0x37>	0
<0x38>	0
<0x39>	0
<0x3A>	0
<0x3B>	0
<0x3C>	0
<0x3D>	0
<0x3E>	0
<0x3F>	0
<0x40>	0
<0x41>	0
<0x42>	0
<0x43>	0
<0x44>	0
<0x45>	0
<0x46>	0
<0x47>	0
<0x48>	0
<0x49>	0
<0x4A>	0
<0x4B>	0
<0x4C>	0
<0x4D>	0
<0x4E>	0
<0x4F>	0
<0x50>	0
<0x51>	0
<0x52>	0
<0x53>	0
<0x54>	0
<0x55>	0
<0x56>	0
<0x57>	0
<0x58>	0
<0x59>	0
<0x5A>	0
<0x5B>	0
<0x5C>	0
<0x5D>	0
<0x5E>	0
<0x5F>	0
<0x60>	0
<0x61>	0
<0x62>	0
<0x63>	0
<0x64>	0
<0x65>	0
<0x66>	0
<0x67>	0
<0x68>	0
<0x69>	0
<0x6A>	0
<0x6B>	0
<0x6C>	0
<0x6D>	0
<0x6E>	0
<0x6F>	0
<0x70>	0
<0x71>	0
<0x72>	0
<0x73>	0
<0x74>	0
<0x75>	0
<0x76>	0
<0x77>	0
<0x78>	0
<0x79>	0
<0x7A>	0
<0x7B>	0
<0x7C>	0
<0x7D>	0
<0x7E>	0
<0x7F>	0
<0x80>	0
<0x81>	0
<0x82>	0
<0x83>	0
<0x84>	0
<0x85>	0
<0x86>	0
<0x87>	0
<0x88>	0
<0x89>	0
<0x8A>	0
<0x8B>	0
<0x8C>	0
<0x8D>	0
<0x8E>	0
<0x8F>	0
<0x90>	0
<0x91>	0
<0x92>	0
<0x93>	0
<0x94>	0
<0x95>	0
<0x96>	0
<0x97>	0
<0x98>	0
<0x99>	0
<0x9A>	0
<0x9B>	0
<0x9C>	0
<0x9D>	0
<0x9E>	0
<0x9F>	0
<0xA0>	0
<0xA1>	0
<0xA2>	0
<0xA3>	0
<0xA4>	0
<0xA5>	0
<0xA6>	0
<0xA7>	0
<0xA8>	0
<0xA9>	0
<0xAA>	0
<0xAB>	0
<0xAC>	0
<0xAD>	0
<0xAE>	0
<0xAF>	0
<0xB0>	0
<0xB1>	0
<0xB2>	0
<0xB3>	0
<0xB4>	0
<0xB5>	0
<0xB6>	0
<0xB7>	0
<0xB8>	0
<0xB9>	0
<0xBA>	0
<0xBB>	0
<0xBC>	0
<0xBD>	0
<0xBE>	0
<0xBF>	0
<0xC0>	0
<0xC1>	0
<0xC2>	0
<0xC3>	0
<0xC4>	0
<0xC5>	0
<0xC6>	0
<0xC7>	0
<0xC8>	0
<0xC9>	0
<0xCA>	0
<0xCB>	0
<0xCC>	0
<0xCD>	0
<0xCE>	0
<0xCF>	0
<0xD0>	0
<0xD1>	0
<0xD2>	0
<0xD3>	0
<0xD4>	0
<0xD5>	0
<0xD6>	0
<0xD7>	0
<0xD8>	0
<0xD9>	0
<0xDA>	0
<0xDB>	0
<0xDC>	0
<0xDD>	0
<0xDE>	0
<0xDF>	0
<0xE0>	0
<0xE1>	0
<0xE2>	0
<0xE3>	0
<0xE4>	0
<0xE5>	0
<0xE6>	0
<0xE7>	0
<0xE8>	0
<0xE9>	0
<0xEA>	0
<0xEB>	0
<0xEC>	0
<0xED>	0
<0xEE>	0
<0xEF>	0
<0xF0>	0
<0xF1>	0
<0xF2>	0
<0xF3>	0
<0xF4>	0
<0xF5>	0
<0xF6>	0
<0xF7>	0
<0xF8>	0
<0xF9>	0
<0xFA>	0
<0xFB>	0
<0xFC>	0
<0xFD>	0
<0xFE>	0
<0xFF>	0
.	-2.7437
,	-3.13772
▁the	-3.42081
▁and	-3.43502
▁to	-3.71956
▁a	-3.75057
s	-3.97247
▁	-4.15303
▁was	-4.26823
▁"	-4.79423
▁The	-4.83175
▁it	-4.87187
'	-4.87615
▁of	-4.88226
▁in	-4.88451
▁They	-4.89947
▁with	-5.00455
▁He	-5.02905
▁said	-5.16763
▁day	-5.16898
▁Tim	-5.22211
▁her	-5.25371
▁She	-5.26703
▁his	-5.27034
▁you	-5.29879
▁big	-5.40343
▁they	-5.40761
▁that	-5.40944
▁he	-5.41658
▁for	-5.42901
▁on	-5.46035
▁had	-5.55513
▁not	-5.59574
t	-5.66594
!	-5.67392
▁One	-5.70315
ing	-5.70803
▁very	-5.71063
▁happy	-5.7141
▁play	-5.716
▁time	-5.73401
▁saw	-5.73904
▁Lily	-5.74666
▁little	-5.78403
▁is	-5.79459
▁I	-5.81161
▁there	-5.82117
."	-5.83445
▁she	-5.84027
▁Tom	-5.86011
▁mom	-5.88128
▁were	-5.89486
▁named	-5.90736
▁so	-5.94858
▁wanted	-5.96364
▁friends	-5.9718
▁but	-5.9763
▁It	-5.98
!"	-5.98155
▁their	-5.98954
▁all	-6.00291
▁can	-6.03468
▁Once	-6.0814
▁went	-6.08381
▁upon	-6.10979
▁bird	-6.11109
▁be	-6.14853
▁are	-6.17519
:	-6.21048
▁together	-6.21734
▁at	-6.23186
▁help	-6.23767
▁fun	-6.28747
ed	-6.29735
▁like	-6.30123
▁them	-6.30789
▁have	-6.31151
▁up	-6.32932
▁dog	-6.37538
-	-6.38729
▁your	-6.40278
▁could	-6.40891
▁But	-6.41089
?"	-6.4195
▁cat	-6.44012
▁too	-6.44228
▁played	-6.44479
▁girl	-6.4466
▁did	-6.45061
▁him	-6.47992
▁from	-6.50017
▁sad	-6.52613
▁or	-6.52908
▁we	-6.53296
▁tree	-6.53348
▁boy	-6.54326
▁found	-6.54567
▁ball	-6.54825
▁Sue	-6.55784
▁Max	-6.58099
▁loved	-6.58183
▁looked	-6.58841
I	-6.59136
▁back	-6.60302
▁friend	-6.60854
▁new	-6.61193
▁about	-6.61765
▁go	-6.6307
d	-6.63179
▁would	-6.6465
▁what	-6.65486
▁this	-6.70134
▁Ben	-6.70174
▁Sam	-6.70591
▁park	-6.72203
▁toy	-6.73218
▁will	-6.73303
▁out	-6.73324
▁an	-6.74367
▁into	-6.74724
▁see	-6.75401
▁felt	-6.75812
▁make	-6.76483
▁liked	-6.77191
▁other	-6.77342
▁asked	-6.77627
ly	-6.79199
▁started	-6.79243
▁want	-6.79683
▁came	-6.79862
▁when	-6.80898
▁do	-6.81131
▁as	-6.82568
▁small	-6.83822
▁something	-6.83942
▁home	-6.87248
▁by	-6.8807
▁find	-6.89561
▁made	-6.90093
▁smiled	-6.9091
▁good	-6.91424
▁some	-6.91507
▁how	-6.92811
▁me	-6.92812
▁away	-6.93321
▁around	-6.93422
▁my	-6.94515
?	-6.94931
y	-6.95021
▁more	-6.95339
▁A	-6.95454
▁down	-6.95966
▁thought	-6.96693
▁put	-6.97397
▁playing	-6.97769
▁Spot	-6.98198
▁who	-6.99718
▁You	-7.00543
▁things	-7.02606
▁car	-7.05412
▁then	-7.06091
,"	-7.06103
▁ran	-7.06929
▁house	-7.07566
▁again	-7.07786
▁Mia	-7.08118
▁one	-7.08142
▁So	-7.08424
▁many	-7.08624
▁took	-7.08654
m	-7.1166
▁scared	-7.11996
▁toys	-7.14067
▁lived	-7.14248
▁box	-7.16143
▁know	-7.16234
▁both	-7.17204
er	-7.18377
▁As	-7.19541
▁man	-7.20336
▁get	-7.21847
e	-7.22253
▁In	-7.23426
▁water	-7.24465
re	-7.24645
▁got	-7.2613
▁our	-7.26327
▁Lucy	-7.2645
▁tried	-7.27216
▁each	-7.28889
▁(	-7.29035
▁because	-7.29301
▁says	-7.29614
▁And	-7.30325
▁best	-7.30781
▁red	-7.32411
▁When	-7.3262
▁these	-7.32733
▁always	-7.32805
▁learned	-7.32807
▁knew	-7.33487
▁became	-7.3497
▁outside	-7.38293
▁decided	-7.38946
▁its	-7.39088
▁if	-7.3997
▁just	-7.40239
al	-7.40296
▁let	-7.40331
▁room	-7.4071
▁We	-7.40717
▁people	-7.42025
▁long	-7.43613
▁laughed	-7.44298
▁while	-7.44604
▁every	-7.4529
▁much	-7.45342
▁Then	-7.45996
▁even	-7.46782
▁take	-7.48042
▁inside	-7.49433
Yes	-7.4998
▁Mom	-7.50312
es	-7.50343
▁look	-7.50433
▁over	-7.50715
▁Bob	-7.51133
▁This	-7.51296
▁better	-7.53546
▁His	-7.53783
▁told	-7.53865
▁excited	-7.54369
▁nice	-7.54459
)	-7.55183
▁no	-7.5589
▁food	-7.56013
▁dad	-7.57589
▁pretty	-7.57871
▁-	-7.58725
r	-7.59208
▁eat	-7.60039
▁where	-7.60695
▁us	-7.61573
▁*	-7.61993
▁gave	-7.62481
n	-7.62554
▁old	-7.632
▁sun	-7.64278
▁share	-7.65035
▁fish	-7.66956
▁Anna	-7.66999
▁Amy	-7.68033
▁special	-7.68192
▁kind	-7.69652
▁animals	-7.69796
▁sorry	-7.69935
▁fast	-7.70189
▁don	-7.7026
▁idea	-7.71153
▁way	-7.71235
▁bear	-7.72499
▁From	-7.72766
▁heard	-7.72904
▁didn	-7.73071
▁under	-7.73536
▁through	-7.73583
▁also	-7.73884
▁walked	-7.7394
▁after	-7.74391
▁happened	-7.74558
▁Her	-7.74657
▁ever	-7.74856
▁come	-7.75265
▁called	-7.7548
▁high	-7.76677
▁am	-7.76685
▁i	-7.78084
▁near	-7.78197
▁sky	-7.78344
▁has	-7.78831
▁careful	-7.79243
▁need	-7.79395
▁such	-7.79906
▁feel	-7.80611
▁never	-7.81499
▁work	-7.82878
▁family	-7.84645
▁Now	-7.84825
▁Let	-7.84983
▁love	-7.85385
▁being	-7.85994
▁still	-7.86034
▁hard	-7.86171
▁two	-7.86996
▁end	-7.8738
Thank	-7.87818
▁lots	-7.87938
ll	-7.88263
▁anymore	-7.88594
▁safe	-7.88665
▁now	-7.88881
▁**	-7.89155
▁rock	-7.89317
▁flew	-7.90422
▁before	-7.908
▁different	-7.90868
▁ground	-7.9099
▁everyone	-7.92237
_	-7.92658
▁run	-7.93814
▁use	-7.95142
▁great	-7.95254
▁garden	-7.95888
▁door	-7.96244
▁shiny	-7.96823
▁until	-7.97021
▁unexpected	-7.97054
▁bad	-7.97141
▁lot	-7.97156
▁cake	-7.9729
▁should	-7.98204
▁By	-7.98368
▁hurt	-7.9853
▁bug	-7.98856
You	-7.98957
▁At	-7.98967
▁world	-7.99306
▁might	-7.99594
▁Sara	-8.00132
▁place	-8.00159
Let	-8.00309
▁try	-8.00483
▁story	-8.00499
▁next	-8.0085
▁picked	-8.01374
▁surprised	-8.01535
▁After	-8.01699
▁give	-8.02015
▁say	-8.02089
▁off	-8.02377
▁opened	-8.02406
▁learn	-8.02944
▁strong	-8.03612
▁clean	-8.03761
c	-8.04382
▁than	-8.04601
▁proud	-8.04673
▁open	-8.05087
▁used	-8.0588
▁others	-8.06012
▁beautiful	-8.06582
▁thanked	-8.06702
▁first	-8.07856
▁keep	-8.07921
▁hugged	-8.08062
▁blue	-8.08386
a	-8.08519
▁show	-8.0874
▁C	-8.08919
▁between	-8.09522
▁right	-8.09633
o	-8.09702
No	-8.09781
ers	-8.10189
▁kids	-8.10205
▁explore	-8.1038
i	-8.10799
▁game	-8.10921
▁jumped	-8.1147
▁forest	-8.12201
"	-8.12282
▁fly	-8.1242
▁making	-8.13042
▁important	-8.13441
▁Suddenly	-8.13814
▁town	-8.14544
▁loud	-8.15392
g	-8.15545
▁which	-8.15561
▁walk	-8.15697
ation	-8.1639
▁That	-8.1662
▁within	-8.16965
▁–	-8.17571
▁helped	-8.18426
▁frog	-8.19083
▁listen	-8.19985
▁Sally	-8.20011
ic	-8.20183
▁S	-8.20452
▁having	-8.2048
▁showed	-8.21111
▁magic	-8.21844
in	-8.22088
▁any	-8.22604
ion	-8.23018
▁re	-8.23018
▁happily	-8.23359
▁Kitty	-8.2396
▁warm	-8.24438
▁going	-8.24461
▁green	-8.24921
▁another	-8.25614
▁hand	-8.25897
▁lost	-8.26008
▁during	-8.26373
▁using	-8.26755
or	-8.26835
▁couldn	-8.26873
▁book	-8.27199
What	-8.27387
Can	-8.281
▁brave	-8.28139
▁For	-8.28141
▁stopped	-8.28148
▁boat	-8.28175
▁store	-8.28652
▁own	-8.28911
▁soon	-8.29106
th	-8.29303
▁think	-8.29533
S	-8.29537
▁wind	-8.29735
▁truck	-8.2991
;	-8.30289
▁To	-8.30671
▁soft	-8.30701
▁shared	-8.30818
▁met	-8.31156
▁“	-8.31432
▁angry	-8.31584
▁Jack	-8.31718
(	-8.31721
’	-8.31975
▁yummy	-8.31981
▁been	-8.32222
▁face	-8.32566
▁hole	-8.32752
▁life	-8.32754
▁understand	-8.3298
▁favorite	-8.33078
It	-8.33602
▁hands	-8.3426
▁noise	-8.34363
▁talk	-8.34403
▁slide	-8.3461
▁only	-8.34611
▁mouse	-8.34655
▁here	-8.35044
▁fell	-8.35181
▁jump	-8.35887
▁why	-8.35909
▁mean	-8.35953
▁Can	-8.36649
▁flowers	-8.37093
▁These	-8.37349
Hi	-8.37738
il	-8.3797
▁ate	-8.38131
▁looking	-8.38271
▁sat	-8.38908
▁hat	-8.38979
▁head	-8.38999
▁rabbit	-8.39394
▁catch	-8.40763
▁those	-8.41225
▁bed	-8.41266
▁care	-8.41418
▁smile	-8.41439
▁behind	-8.41475
le	-8.42027
▁various	-8.42417
▁B	-8.42909
▁nodded	-8.42965
▁kept	-8.43291
▁does	-8.43315
▁eyes	-8.436
li	-8.43959
▁stay	-8.4434
ment	-8.44435
▁create	-8.44726
▁Fluffy	-8.44762
▁squirrel	-8.44803
▁began	-8.45076
▁Do	-8.45198
▁watch	-8.45759
p	-8.45944
ve	-8.46269
Look	-8.46574
▁rain	-8.46885
el	-8.47125
▁Every	-8.47299
▁race	-8.47599
ur	-8.4763
▁funny	-8.47874
We	-8.48144
▁move	-8.48925
▁may	-8.49063
▁stick	-8.492
▁moral	-8.49236
▁curious	-8.49525
▁tired	-8.49674
That	-8.50292
A	-8.50303
▁must	-8.50387
▁sunny	-8.51102
▁ice	-8.51547
▁bunny	-8.51746
▁pond	-8.51877
▁hug	-8.52128
▁needed	-8.5216
▁cold	-8.52231
l	-8.52421
▁thing	-8.52458
▁kitchen	-8.53032
P	-8.5319
▁paper	-8.53229
ity	-8.53375
▁well	-8.53567
▁worry	-8.53688
▁p	-8.53792
▁worked	-8.5388
▁someone	-8.54164
b	-8.54734
▁party	-8.54788
▁Just	-8.549
Hello	-8.55509
▁learning	-8.55677
ism	-8.55689
▁unique	-8.56033
▁While	-8.56059
▁far	-8.56161
▁sometimes	-8.56201
▁understanding	-8.56415
▁read	-8.5648
▁colors	-8.56691
able	-8.56901
ting	-8.57062
▁surprise	-8.57984
▁towards	-8.58017
▁table	-8.58217
▁light	-8.58401
u	-8.58557
▁top	-8.58645
an	-8.5865
▁full	-8.58809
▁flower	-8.58839
▁stop	-8.59021
▁mommy	-8.59065
▁What	-8.59322
▁key	-8.59982
▁dress	-8.60133
▁three	-8.60559
▁night	-8.60617
▁dark	-8.60955
▁okay	-8.6121
▁`	-8.61351
▁across	-8.61679
Wow	-8.61801
▁today	-8.62036
▁feeling	-8.62303
▁closer	-8.62438
▁agreed	-8.62869
ar	-8.63134
▁All	-8.63154
ent	-8.63157
▁walking	-8.63181
▁E	-8.63264
▁birds	-8.63337
▁Mr	-8.63622
▁picture	-8.63851
▁doll	-8.63866
C	-8.64042
▁wait	-8.64265
▁cool	-8.64307
▁hill	-8.64471
▁voice	-8.64588
ri	-8.65118
`	-8.65137
on	-8.65273
it	-8.65296
▁John	-8.66057
Don	-8.66069
▁climb	-8.67039
▁F	-8.67207
▁Timmy	-8.67243
▁sound	-8.67323
▁stories	-8.67483
▁yard	-8.67485
▁tall	-8.67492
▁watched	-8.67656
▁often	-8.67717
▁turned	-8.67851
▁without	-8.67859
▁touch	-8.67991
▁doing	-8.68195
▁Re	-8.68214
▁leaves	-8.6829
▁remember	-8.68433
▁example	-8.69118
Why	-8.6951
▁There	-8.69548
▁tell	-8.69864
▁floor	-8.6993
▁real	-8.70052
▁ready	-8.70131
▁sure	-8.70199
▁bright	-8.70577
▁hot	-8.70774
▁tail	-8.70912
▁Jane	-8.71151
▁grass	-8.71161
x	-8.71474
▁f	-8.71551
▁set	-8.71607
▁dance	-8.71612
▁please	-8.7166
ness	-8.72243
▁train	-8.72405
▁trying	-8.72703
▁close	-8.73123
▁D	-8.74065
▁Bobo	-8.74174
▁name	-8.74199
▁helping	-8.74293
▁lion	-8.74847
▁bag	-8.75004
▁running	-8.75072
▁friendly	-8.7607
ive	-8.76312
ro	-8.76337
▁left	-8.76398
▁de	-8.76438
▁most	-8.76473
▁laugh	-8.7661
ies	-8.77104
▁cried	-8.77152
▁buy	-8.77169
▁job	-8.77202
▁moment	-8.77382
▁lady	-8.77428
Mom	-8.77694
▁cars	-8.78139
▁school	-8.78327
f	-8.78437
▁yellow	-8.78729
▁rest	-8.79136
▁1.	-8.79152
▁music	-8.79248
▁books	-8.7931
▁potential	-8.79339
▁trees	-8.79383
▁power	-8.79386
▁Finally	-8.79405
▁ask	-8.79416
▁hungry	-8.79511
▁essential	-8.79518
▁=	-8.79748
h	-8.79855
▁P	-8.79863
T	-8.79869
▁data	-8.80069
▁sing	-8.80199
▁un	-8.80222
D	-8.80411
▁exploring	-8.80537
▁fix	-8.80623
▁build	-8.80732
▁Imagine	-8.80813
▁broken	-8.8097
▁cream	-8.81149
▁among	-8.81849
▁grow	-8.82709
▁With	-8.82736
▁adventure	-8.82798
▁become	-8.82846
▁sweet	-8.82875
▁1	-8.82946
▁cry	-8.83233
▁makes	-8.83469
▁However	-8.83607
▁change	-8.83631
▁listened	-8.83896
▁wet	-8.83929
▁blocks	-8.83984
▁years	-8.84056
▁sharing	-8.84059
ne	-8.84506
▁course	-8.84595
im	-8.85319
▁Fin	-8.85535
▁reach	-8.85652
▁Mommy	-8.85837
▁gone	-8.86018
▁air	-8.86086
▁d	-8.86108
▁due	-8.8622
lo	-8.86269
2	-8.86811
to	-8.86858
▁tiny	-8.87119
▁pick	-8.87123
▁quickly	-8.87215
▁living	-8.87247
se	-8.87274
▁seen	-8.87394
est	-8.87619
▁games	-8.87659
▁hear	-8.87666
▁2.	-8.87806
▁reached	-8.87867
ry	-8.87893
▁T	-8.87923
▁window	-8.8834
▁start	-8.88344
▁climbed	-8.88379
▁done	-8.88411
▁coming	-8.88631
k	-8.89277
▁social	-8.89388
▁everything	-8.89397
▁Everyone	-8.89506
▁deep	-8.89644
▁wise	-8.89703
▁journey	-8.89906
B	-8.89993
▁bit	-8.90173
▁held	-8.90336
▁c	-8.90453
▁duck	-8.90542
▁hide	-8.9061
▁side	-8.91106
▁challenges	-8.91263
id	-8.91264
▁fire	-8.91408
),	-8.91413
E	-8.91509
▁words	-8.91762
▁Sarah	-8.91949
▁filled	-8.91953
▁glad	-8.92201
▁sea	-8.92413
▁sit	-8.92683
Oh	-8.92716
▁children	-8.92736
▁pushed	-8.92816
▁swing	-8.92908
M	-8.92972
▁Lila	-8.93214
▁baby	-8.93251
▁goodbye	-8.93407
ul	-8.93589
▁instead	-8.93741
▁enough	-8.93879
▁apple	-8.94007
as	-8.94057
en	-8.94119
▁On	-8.94232
ci	-8.9439
▁noticed	-8.94486
▁anything	-8.9454
▁along	-8.94615
▁Soon	-8.95156
▁b	-8.95236
▁replied	-8.95275
▁sleep	-8.95351
▁art	-8.95373
▁complex	-8.95418
▁history	-8.95577
O	-8.95779
▁lesson	-8.96002
▁mess	-8.96307
▁draw	-8.96319
▁stuck	-8.96935
▁experiences	-8.97056
▁pro	-8.9706
▁Dad	-8.97101
▁scary	-8.97348
▁ensure	-8.97495
ate	-8.97672
▁colorful	-8.97837
▁really	-8.9786
**	-8.98034
▁G	-8.98533
w	-8.9861
▁individuals	-8.98995
▁wished	-8.99226
▁won	-8.99231
▁human	-8.99253
ions	-8.99502
▁role	-8.99677
▁part	-8.99831
▁tower	-9.00084
▁else	-9.0014
▁same	-9.00323
▁join	-9.00335
▁hair	-9.00574
▁field	-9.00641
▁plan	-9.00693
▁looks	-9.00811
▁paint	-9.00989
F	-9.01167
ir	-9.01172
at	-9.01198
).	-9.01228
▁heart	-9.01259
▁alone	-9.0147
▁song	-9.01543
age	-9.01616
ter	-9.02314
▁bigger	-9.02382
▁chair	-9.0262
▁mouth	-9.02954
L	-9.02989
▁Section	-9.02991
▁heavy	-9.03223
▁land	-9.03241
▁co	-9.03255
▁```	-9.03396
▁dirty	-9.03484
▁white	-9.03494
na	-9.03659
▁pictures	-9.03695
▁cut	-9.03927
▁turn	-9.03957
▁ride	-9.04142
▁woods	-9.04272
▁clothes	-9.0439
▁money	-9.04397
▁valuable	-9.0444
▁smart	-9.04648
▁nest	-9.04797
1	-9.04843
▁pulled	-9.04872
▁farm	-9.05462
▁continued	-9.05713
▁shouted	-9.05734
▁pink	-9.05761
▁support	-9.05826
▁How	-9.0594
▁butterfly	-9.06038
▁health	-9.06334
ch	-9.06499
▁plant	-9.06533
R	-9.066
▁young	-9.0662
▁working	-9.06623
▁remembered	-9.06649
▁followed	-9.06682
▁amazing	-9.06863
▁turns	-9.06891
▁enjoy	-9.07017
ist	-9.0707
ating	-9.07101
▁including	-9.07224
▁wrong	-9.07267
▁perfect	-9.0728
et	-9.07388
▁modern	-9.07403
▁De	-9.07495
▁break	-9.07587
▁If	-9.07707
▁broke	-9.07807
▁himself	-9.07892
▁self	-9.08136
▁yourself	-9.082
▁Inside	-9.08279
:**	-9.08322
▁owl	-9.08403
ia	-9.08443
▁grabbed	-9.08535
▁function	-9.08657
▁dive	-9.08897
▁comes	-9.08918
▁pieces	-9.08974
▁skills	-9.09021
▁clapped	-9.09107
▁sand	-9.09206
Okay	-9.09451
▁carefully	-9.09498
▁stayed	-9.09546
▁sees	-9.09748
▁unit	-9.09978
v	-9.10316
ver	-9.10353
▁parents	-9.10455
▁enjoyed	-9.10481
▁Through	-9.10613
▁brought	-9.10758
up	-9.10847
▁fruit	-9.10981
▁future	-9.11096
ra	-9.11449
▁waved	-9.11484
co	-9.11769
▁instance	-9.11777
▁castle	-9.11783
▁throughout	-9.11841
▁students	-9.11923
▁Daisy	-9.12271
de	-9.12272
▁bike	-9.12476
▁ways	-9.12539
us	-9.12674
▁hit	-9.13149
▁specific	-9.13156
▁con	-9.13479
▁techniques	-9.13486
▁star	-9.13618
▁Buddy	-9.13676
▁waited	-9.13758
▁cultural	-9.13838
▁piece	-9.14095
▁Maybe	-9.14179
▁wear	-9.14231
▁based	-9.14463
▁brother	-9.14911
tion	-9.15055
▁Chapter	-9.15141
▁visit	-9.15169
▁dry	-9.1522
▁realized	-9.15228
▁blew	-9.15332
Do	-9.15607
▁information	-9.15679
▁against	-9.15714
ge	-9.1588
▁Ma	-9.15888
▁Understanding	-9.1601
▁Tommy	-9.16135
ant	-9.16299
▁everywhere	-9.16337
▁higher	-9.16442
▁3.	-9.16466
▁swim	-9.16741
▁bring	-9.17022
This	-9.1712
▁local	-9.17364
▁round	-9.17367
▁sign	-9.17374
ization	-9.17424
ad	-9.17443
▁###	-9.17613
ling	-9.17646
**:	-9.17684
ance	-9.17804
▁provide	-9.17871
ty	-9.18229
▁hopped	-9.18253
▁communities	-9.18389
▁Their	-9.18601
▁getting	-9.18609
▁Some	-9.18667
▁issues	-9.18713
ck	-9.19084
z	-9.19121
▁process	-9.19313
▁wall	-9.19382
ke	-9.19591
▁Be	-9.19684
▁taking	-9.19732
▁spot	-9.20003
▁tools	-9.2007
▁means	-9.20579
▁faster	-9.20642
▁black	-9.20894
▁threw	-9.20922
ine	-9.20949
▁bowl	-9.20992
▁body	-9.21202
ol	-9.21743
▁secret	-9.21928
is	-9.21929
▁swam	-9.21956
▁fall	-9.22102
▁building	-9.22108
▁Have	-9.22243
tic	-9.22304
▁historical	-9.22463
▁free	-9.22475
▁systems	-9.22528
▁group	-9.22673
um	-9.22715
▁eating	-9.22775
▁hold	-9.22788
▁win	-9.22884
▁resources	-9.22981
▁monster	-9.23085
op	-9.23094
te	-9.2326
▁follow	-9.23278
▁treat	-9.23337
▁powerful	-9.23436
▁several	-9.23508
ta	-9.23588
▁crucial	-9.236
▁design	-9.23601
▁hope	-9.23689
ie	-9.23732
▁river	-9.23786
ma	-9.23801
▁practices	-9.24196
▁significant	-9.24299
▁questions	-9.24314
▁Together	-9.24411
▁diverse	-9.24519
▁pot	-9.24525
▁person	-9.24653
vi	-9.24905
▁live	-9.25338
ted	-9.25477
▁individual	-9.2593
3	-9.26062
▁leaf	-9.26081
N	-9.2614
▁include	-9.26146
▁yes	-9.26179
▁Billy	-9.26193
▁known	-9.26221
▁research	-9.26252
la	-9.26307
▁sounds	-9.26591
▁wish	-9.26594
▁fascinating	-9.26611
ian	-9.26613
▁tight	-9.26649
ary	-9.26705
▁though	-9.26907
ip	-9.26918
▁fit	-9.27118
▁leave	-9.27166
▁forgot	-9.27235
▁cookies	-9.27271
▁quiet	-9.2728
▁language	-9.27442
▁dinner	-9.27488
▁animal	-9.27571
▁rich	-9.27607
▁Alice	-9.27697
▁color	-9.27786
▁Con	-9.27881
▁balloon	-9.27933
▁creating	-9.27971
▁fight	-9.28126
▁experience	-9.28201
ce	-9.28212
▁sister	-9.28221
▁bite	-9.28333
▁branch	-9.2847
▁lead	-9.28673
▁gift	-9.2907
▁thank	-9.29115
▁slow	-9.2919
ence	-9.2944
be	-9.29712
▁few	-9.29715
▁talked	-9.29737
▁No	-9.29769
▁personal	-9.29957
▁believe	-9.30064
▁beach	-9.30111
▁problem	-9.30281
▁danced	-9.30346
0	-9.30386
sh	-9.30402
▁finished	-9.30562
ations	-9.30675
ous	-9.30986
▁Joe	-9.31002
▁traditional	-9.31385
▁cup	-9.3142
----------------	-9.3148
▁ant	-9.31628
▁talking	-9.31645
▁consider	-9.31746
▁pet	-9.31761
▁mother	-9.31808
▁value	-9.31861
▁pretend	-9.3187
▁drink	-9.31923
▁community	-9.31936
▁lives	-9.31945
ti	-9.32151
▁worried	-9.32484
▁count	-9.32598
min	-9.32639
rs	-9.32789
▁Today	-9.32959
▁Your	-9.33005
▁delicious	-9.33094
▁fox	-9.33097
▁flying	-9.33294
espite	-9.33415
The	-9.33521
▁practice	-9.33608
ping	-9.33774
▁pull	-9.33804
▁nature	-9.33928
▁O	-9.33957
▁mum	-9.33984
▁path	-9.34056
▁strange	-9.34099
▁road	-9.34133
▁space	-9.34155
▁treasure	-9.34177
▁imagine	-9.34296
▁orange	-9.34325
▁stand	-9.34585
▁large	-9.346
▁chapter	-9.34634
▁development	-9.34905
▁impact	-9.35081
▁opportunities	-9.35302
▁number	-9.35506
▁late	-9.35698
▁bottle	-9.35944
▁owner	-9.36108
▁contemporary	-9.36139
▁dream	-9.3637
▁critical	-9.36485
▁protect	-9.36506
▁respect	-9.36572
▁certain	-9.36907
▁promised	-9.36954
▁delve	-9.37039
▁shapes	-9.37723
ical	-9.38091
▁morning	-9.38201
▁silly	-9.38247
▁healthy	-9.3827
▁wants	-9.38393
▁allows	-9.38468
▁king	-9.38494
▁maybe	-9.38653
▁moved	-9.38891
".	-9.39088
▁rocks	-9.39115
▁sitting	-9.39126
▁patient	-9.3941
▁K	-9.39446
▁insights	-9.39596
▁brown	-9.39636
▁able	-9.39702
▁jar	-9.39766
▁doctor	-9.39797
▁growth	-9.39898
▁study	-9.39961
▁An	-9.40337
▁technology	-9.40354
▁M	-9.40445
G	-9.40536
▁cloud	-9.40555
▁test	-9.4065
ual	-9.40769
▁3	-9.40847
▁write	-9.40862
ca	-9.40901
less	-9.4094
▁sang	-9.40982
▁H	-9.41061
▁line	-9.41102
per	-9.41305
▁puddle	-9.41519
▁seek	-9.41615
▁machine	-9.41641
▁themselves	-9.41662
▁strategies	-9.4171
▁patterns	-9.41871
▁bee	-9.41905
Maybe	-9.41952
▁cow	-9.42125
▁deeper	-9.42186
▁knowledge	-9.42187
▁helps	-9.42244
me	-9.42247
▁creative	-9.42362
ments	-9.42371
▁meet	-9.4238
4	-9.42462
▁past	-9.42493
.”	-9.42726
▁popular	-9.4276
▁mind	-9.42835
▁soup	-9.42948
▁blanket	-9.43262
▁Me	-9.43302
▁R	-9.43398
▁promise	-9.43533
▁dangerous	-9.43538
▁magical	-9.43554
am	-9.43599
▁clear	-9.43601
ut	-9.43671
▁joy	-9.4373
▁print	-9.43751
▁gentle	-9.43875
▁shape	-9.43954
▁nap	-9.43954
▁farmer	-9.44198
ated	-9.44213
▁later	-9.44307
▁caught	-9.44363
▁further	-9.44382
▁finally	-9.44444
▁energy	-9.44477
H	-9.4453
▁dis	-9.4469
▁lake	-9.44759
▁plants	-9.44806
▁St	-9.4492
▁hidden	-9.44937
▁mud	-9.45047
▁fair	-9.45091
But	-9.45217
▁monkey	-9.4523
▁step	-9.45273
▁street	-9.45345
ig	-9.45348
▁balance	-9.45495
▁welcome	-9.45528
▁laughing	-9.45754
▁taste	-9.45845
▁early	-9.45912
▁smiles	-9.4595
▁coat	-9.46111
▁shop	-9.46301
▁N	-9.46329
▁elements	-9.46373
▁closed	-9.46577
▁plane	-9.46604
▁herself	-9.4664
▁teacher	-9.46664
▁yet	-9.46729
ial	-9.46811
Tim	-9.46833
▁true	-9.46921
▁nose	-9.46967
and	-9.46991
▁snake	-9.47273
▁crying	-9.47362
▁offer	-9.47427
▁rolled	-9.47462
▁mine	-9.47466
▁apples	-9.47541
tor	-9.47557
▁interesting	-9.47586
▁ancient	-9.47592
man	-9.47667
▁grew	-9.47678
▁purple	-9.47912
▁crab	-9.47933
▁dragon	-9.4798
▁candy	-9.48186
▁shoes	-9.48301
▁button	-9.48421
▁common	-9.48556
▁stone	-9.48576
▁matter	-9.48617
▁fairy	-9.4862
▁village	-9.48675
act	-9.48783
▁likes	-9.48927
▁needs	-9.4894
▁communication	-9.48999
▁grandma	-9.49257
▁throw	-9.49287
▁Well	-9.49392
▁last	-9.49638
▁Alex	-9.49751
▁Mimi	-9.49781
▁aspects	-9.49782
▁onto	-9.49833
▁1:	-9.49915
▁asks	-9.50164
the	-9.50181
▁values	-9.50311
▁teach	-9.50671
▁wide	-9.5078
▁Conclusion	-9.50964
▁relationships	-9.50986
▁factors	-9.5112
▁Remember	-9.51124
▁connections	-9.51128
!”	-9.51234
▁Emma	-9.51368
ative	-9.51372
▁simple	-9.5154
▁pre	-9.51594
▁culture	-9.51648
ize	-9.51654
▁bone	-9.51689
▁push	-9.51785
ities	-9.51881
▁wagged	-9.51944
▁system	-9.52065
▁tasty	-9.52208
▁Co	-9.5239
ful	-9.52501
▁arrived	-9.52544
▁natural	-9.52632
▁robot	-9.52844
▁drive	-9.52912
▁happen	-9.52969
▁surrounding	-9.52986
led	-9.53019
▁wings	-9.53067
▁following	-9.53073
▁control	-9.5313
ure	-9.5317
▁gain	-9.53218
▁trip	-9.53259
▁shining	-9.53378
▁barked	-9.53495
▁events	-9.53624
▁takes	-9.53703
▁similar	-9.5371
▁focus	-9.53812
▁concept	-9.54125
lu	-9.54264
▁online	-9.54566
▁Introduction	-9.5458
▁methods	-9.54642
▁lonely	-9.54688
▁incredible	-9.54724
▁snow	-9.54737
no	-9.54895
▁access	-9.549
▁kite	-9.54962
▁singing	-9.55027
▁contribute	-9.55292
▁class	-9.55303
▁activities	-9.55468
▁call	-9.55603
▁My	-9.55708
va	-9.56011
▁thinking	-9.56067
▁wondered	-9.56107
▁wonderful	-9.56159
▁mad	-9.56218
▁society	-9.56401
di	-9.56422
▁market	-9.56499
ology	-9.56565
▁whole	-9.56585
ized	-9.56645
▁cook	-9.56701
▁case	-9.5679
▁overall	-9.56897
▁wild	-9.56915
▁present	-9.57011
▁cheese	-9.57047
▁travel	-9.57218
▁lunch	-9.57252
▁e	-9.57357
time	-9.5743
▁L	-9.57506
▁string	-9.57531
▁child	-9.576
▁4.	-9.57644
▁importance	-9.57683
▁g	-9.57827
▁smooth	-9.58107
▁serve	-9.5823
ten	-9.5824
do	-9.58255
▁Step	-9.58333
if	-9.58367
▁holding	-9.5839
ors	-9.58501
▁sharp	-9.58538
▁2:	-9.5858
▁Thank	-9.5864
▁Welcome	-9.58661
▁model	-9.58698
▁runs	-9.58714
▁easy	-9.58782
▁helpful	-9.58862
dditionally	-9.59061
▁successful	-9.59091
▁context	-9.5931
▁hoped	-9.59482
▁Blue	-9.59538
▁puzzle	-9.59576
▁grab	-9.59582
▁works	-9.59685
▁slowly	-9.5969
os	-9.59731
▁American	-9.59743
▁Mo	-9.59826
▁associated	-9.59842
▁forever	-9.5994
▁regard	-9.59948
▁wasn	-9.60019
▁bread	-9.60169
Moreover	-9.60226
▁Molly	-9.60341
▁bell	-9.60344
▁types	-9.60394
▁act	-9.60517
▁question	-9.60598
ding	-9.6068
▁wore	-9.60836
ph	-9.60894
▁hiding	-9.60896
▁involves	-9.61083
▁year	-9.61301
▁once	-9.61399
▁V	-9.61772
▁materials	-9.61783
▁form	-9.6184
▁teddy	-9.6186
▁pile	-9.61974
he	-9.61998
▁feels	-9.62009
▁physical	-9.62034
▁cannot	-9.62063
▁appreciate	-9.62151
▁milk	-9.62268
▁W	-9.62291
▁Many	-9.62349
▁continue	-9.62375
▁attention	-9.62444
▁dropped	-9.62445
▁elephant	-9.62483
▁reading	-9.62673
▁efforts	-9.62674
▁anyone	-9.62734
▁track	-9.62796
▁Or	-9.62862
▁save	-9.62935
▁Mark	-9.6295
▁busy	-9.62962
mo	-9.6302
=	-9.63135
▁roll	-9.6319
un	-9.63223
▁short	-9.63326
▁beyond	-9.63425
▁trust	-9.63519
▁Unit	-9.6362
▁since	-9.638
▁bush	-9.6382
V	-9.63821
Please	-9.63934
▁spread	-9.64078
▁steps	-9.64096
▁First	-9.64097
▁seem	-9.64215
▁storm	-9.64256
▁forget	-9.64279
der	-9.64463
▁ensur	-9.64534
▁performance	-9.64544
▁puppy	-9.64555
mon	-9.6464
ish	-9.6494
Of	-9.64957
▁affect	-9.64998
▁ex	-9.65053
▁bow	-9.65057
▁Sometimes	-9.65064
▁bench	-9.65137
▁foster	-9.65146
▁plate	-9.6516
▁leading	-9.65208
▁juice	-9.65215
▁swings	-9.65285
▁result	-9.65303
▁Bella	-9.65319
▁rope	-9.65437
▁thinks	-9.65536
▁fence	-9.6554
▁leg	-9.65578
▁multiple	-9.6568
son	-9.6569
▁cross	-9.65718
▁team	-9.65801
▁pig	-9.66268
▁Before	-9.66305
▁places	-9.66312
▁seat	-9.66415
▁wonder	-9.66423
▁Ra	-9.66567
▁phone	-9.66805
▁famous	-9.66834
▁letter	-9.66835
▁spoon	-9.66895
▁Instead	-9.67182
▁add	-9.6722
▁Whiskers	-9.67325
▁twins	-9.67448
▁birthday	-9.67552
▁rainbow	-9.67654
▁19	-9.6769
▁sail	-9.67793
▁cute	-9.67817
ward	-9.6785
ally	-9.67867
▁shook	-9.68004
▁principles	-9.68058
more	-9.6824
▁groups	-9.68404
▁watching	-9.68483
▁naughty	-9.68521
▁waiting	-9.68564
▁Jill	-9.68564
▁promote	-9.68729
▁arm	-9.68745
om	-9.68802
▁shake	-9.68813
▁fostering	-9.68822
▁environmental	-9.68862
▁adventures	-9.68881
▁horse	-9.68948
▁cover	-9.69043
▁sack	-9.69098
▁conclusion	-9.69146
▁stage	-9.69209
mer	-9.69229
▁refer	-9.69278
▁woke	-9.69292
▁engaging	-9.69313
▁conditions	-9.69349
▁sub	-9.69419
▁touched	-9.6948
qu	-9.69508
▁public	-9.69543
▁Why	-9.69646
▁education	-9.69793
▁Lisa	-9.69798
Sure	-9.69819
les	-9.70028
▁order	-9.70142
▁maintain	-9.70245
end	-9.70266
▁imp	-9.70291
▁r	-9.70295
▁cheered	-9.70297
OK	-9.7041
▁bus	-9.7042
ot	-9.70456
▁Grandma	-9.70478
▁type	-9.70486
▁2	-9.70584
ha	-9.70624
▁global	-9.70735
▁wave	-9.708
▁gently	-9.70852
Tom	-9.71039
▁word	-9.71172
pe	-9.71274
mm	-9.71305
▁offers	-9.71491
▁examine	-9.71516
▁turtle	-9.71619
▁science	-9.7179
▁Go	-9.71849
▁fruits	-9.71872
▁3:	-9.71878
oc	-9.71887
▁fighting	-9.72022
▁honey	-9.72049
▁Further	-9.72155
▁pocket	-9.72177
▁calm	-9.72247
che	-9.72317
▁improve	-9.72446
▁seemed	-9.72488
▁Don	-9.7256
▁treats	-9.72581
▁perform	-9.7275
▁Remy	-9.72967
ship	-9.7297
▁splash	-9.73055
▁finding	-9.73074
▁driver	-9.73121
▁upset	-9.73278
▁drawing	-9.73326
▁Po	-9.73346
▁computer	-9.73465
dy	-9.73506
▁cave	-9.73813
spec	-9.73934
▁goes	-9.74053
▁longer	-9.74072
▁identity	-9.74265
▁challenge	-9.74296
▁Le	-9.74331
5	-9.74503
▁post	-9.74565
line	-9.74599
▁La	-9.7463
▁shy	-9.748
▁city	-9.74973
▁hid	-9.75017
▁digital	-9.75082
▁suddenly	-9.75115
▁management	-9.75162
▁whether	-9.75192
▁$	-9.75231
▁characters	-9.75246
▁video	-9.75269
▁carry	-9.75405
▁Fred	-9.75465
▁songs	-9.75592
lic	-9.75766
▁sick	-9.75882
izing	-9.7611
▁original	-9.76274
▁front	-9.76332
▁choose	-9.76374
▁areas	-9.76503
▁Later	-9.76522
▁giant	-9.76937
▁ones	-9.76976
▁gray	-9.77057
▁match	-9.77129
▁nearby	-9.77163
tra	-9.77176
U	-9.77248
▁basket	-9.77252
▁Leo	-9.77332
▁snack	-9.77372
▁coin	-9.7741
▁rules	-9.77507
▁code	-9.77589
▁huge	-9.77591
▁isn	-9.77596
▁map	-9.77696
▁stars	-9.77789
▁ring	-9.77862
ens	-9.77931
▁smell	-9.77932
▁dirt	-9.78184
▁exciting	-9.78232
▁ugly	-9.78484
▁pain	-9.78499
▁pen	-9.78564
▁mix	-9.78568
▁Cat	-9.78588
ow	-9.78642
ries	-9.78924
▁difficult	-9.78928
▁cr	-9.79074
▁finish	-9.792
▁narratives	-9.79219
ee	-9.79264
▁four	-9.79274
▁fixed	-9.79292
king	-9.79394
▁tie	-9.79402
▁princess	-9.79452
▁mental	-9.79825
▁lay	-9.80081
▁shaping	-9.80125
▁cloth	-9.80135
▁less	-9.80139
▁nothing	-9.80222
▁success	-9.80256
▁point	-9.80355
ue	-9.80377
▁bugs	-9.80505
▁tea	-9.80557
▁cookie	-9.80595
▁spider	-9.80685
▁po	-9.80692
▁dolls	-9.80764
▁changes	-9.80812
sta	-9.80904
▁Mary	-9.81035
▁U	-9.81305
▁spin	-9.81336
▁view	-9.81503
▁di	-9.81588
▁answer	-9.81705
▁amazed	-9.81817
▁bucket	-9.81817
▁feelings	-9.81837
▁trouble	-9.81946
▁ship	-9.81966
▁Even	-9.81994
▁kitten	-9.82006
▁led	-9.82078
▁available	-9.82078
▁media	-9.82078
▁processes	-9.82207
bi	-9.82476
▁guess	-9.82483
▁forward	-9.82484
Step	-9.82486
▁brush	-9.8253
▁Course	-9.82554
▁perspectives	-9.82578
ard	-9.82588
▁country	-9.82912
▁check	-9.82971
▁decision	-9.83073
▁necessary	-9.83129
ac	-9.83175
▁providing	-9.83225
▁log	-9.83296
▁Jamie	-9.83321
▁l	-9.83336
▁sugar	-9.83417
tr	-9.83512
W	-9.83542
▁regular	-9.8357
▁per	-9.83655
hy	-9.83704
▁literature	-9.83707
▁oven	-9.83707
▁pay	-9.83752
▁achieve	-9.839
▁Jo	-9.84044
▁noises	-9.84311
▁lucky	-9.84409
ber	-9.84461
▁doesn	-9.84506
▁women	-9.84507
▁honest	-9.84531
fi	-9.84624
▁concepts	-9.84684
▁rather	-9.84704
▁sort	-9.84707
Good	-9.84745
▁growing	-9.84884
em	-9.84964
▁environment	-9.85115
da	-9.85293
▁pan	-9.85309
ni	-9.85351
▁problems	-9.85411
▁Bunny	-9.85437
▁moon	-9.85452
rit	-9.85467
$	-9.85617
python	-9.85682
ud	-9.8573
▁Over	-9.85793
▁non	-9.85806
▁bridge	-9.86003
▁healthcare	-9.86007
▁concerns	-9.86025
▁drove	-9.86077
Hey	-9.86214
▁members	-9.86308
▁whistle	-9.86368
▁knee	-9.8645
ability	-9.86554
▁spicy	-9.86672
▁promoting	-9.86797
▁begin	-9.86815
▁levels	-9.86883
▁cultures	-9.86893
▁discovered	-9.86901
pa	-9.87104
▁rude	-9.87122
▁prevent	-9.87292
Each	-9.87373
▁band	-9.87555
Lily	-9.87557
ice	-9.87606
▁gender	-9.87626
mi	-9.87719
▁painting	-9.87727
▁challenging	-9.87748
▁forms	-9.87768
▁confused	-9.879
▁weak	-9.87919
pi	-9.88056
▁corner	-9.88084
▁Here	-9.88135
▁components	-9.88264
▁numbers	-9.88286
▁discover	-9.88367
▁lemon	-9.88376
▁woman	-9.88404
hi	-9.88408
po	-9.88478
▁knowing	-9.88591
ning	-9.88797
▁pillow	-9.88965
▁Ne	-9.89004
old	-9.89019
▁empty	-9.8909
▁pie	-9.89193
▁fur	-9.89219
▁asking	-9.89281
▁Ba	-9.89305
▁Dr	-9.89323
▁fat	-9.89355
▁return	-9.89438
▁shelf	-9.89448
▁particularly	-9.89559
val	-9.89614
way	-9.89621
?”	-9.89691
▁hop	-9.89846
▁emotional	-9.8992
▁approach	-9.89953
▁cooking	-9.89957
llowing	-9.89967
▁Bo	-9.9009
▁low	-9.90106
▁parts	-9.90111
▁legs	-9.90114
▁business	-9.90138
▁benefits	-9.90138
▁chicken	-9.9014
▁lift	-9.90294
▁remain	-9.90357
▁address	-9.90383
istic	-9.9042
tro	-9.90474
▁positive	-9.90519
▁significantly	-9.9059
▁figure	-9.90619
▁Come	-9.90633
▁drum	-9.90661
▁Ro	-9.90676
unt	-9.90688
▁novel	-9.90749
▁especially	-9.90838
▁Pro	-9.90846
▁behavior	-9.90881
▁arms	-9.90927
▁pool	-9.90927
▁guide	-9.90939
*	-9.91058
▁Ann	-9.91174
con	-9.91199
▁analysis	-9.91202
▁en	-9.91231
▁examining	-9.91306
▁faces	-9.91338
▁possible	-9.91437
▁missed	-9.91455
gu	-9.91461
▁reflect	-9.91747
▁artists	-9.91803
▁points	-9.91851
▁fine	-9.91917
▁stepped	-9.91938
▁safety	-9.91963
▁political	-9.91984
▁maintaining	-9.92081
▁clever	-9.9217
ner	-9.92208
▁stood	-9.92275
▁law	-9.92321
▁allow	-9.92388
▁enhance	-9.92446
ists	-9.92642
▁snowman	-9.92655
▁Jen	-9.92655
▁medicine	-9.9275
▁engage	-9.92761
▁Com	-9.92784
ide	-9.92787
▁fancy	-9.92836
▁structures	-9.93025
▁normal	-9.93042
▁201	-9.93134
):	-9.93161
▁eye	-9.93162
▁Mama	-9.93198
▁cozy	-9.932
▁smaller	-9.93228
▁drew	-9.93386
▁Daddy	-9.93615
▁readers	-9.93696
gen	-9.93764
▁Benny	-9.93847
▁board	-9.9389
▁shirt	-9.9392
▁faced	-9.93934
▁app	-9.94089
▁organizations	-9.94134
▁wash	-9.94186
▁features	-9.94295
▁daily	-9.94295
go	-9.94345
land	-9.9443
form	-9.94563
▁chocolate	-9.94618
▁area	-9.94727
▁TV	-9.94961
▁mirror	-9.94969
ger	-9.94983
▁comfortable	-9.9501
▁themes	-9.95025
Be	-9.95032
▁wouldn	-9.95085
▁Luna	-9.9511
ps	-9.95129
▁mark	-9.95169
ea	-9.9525
ile	-9.95321
▁Chris	-9.95402
▁shell	-9.95659
▁grumpy	-9.95837
sa	-9.95847
▁exactly	-9.95892
▁5.	-9.9595
▁note	-9.96115
▁bake	-9.96126
▁moving	-9.96165
▁numerous	-9.96247
▁Our	-9.96286
▁planet	-9.96325
▁library	-9.96329
▁sense	-9.9633
▁pizza	-9.96439
▁humans	-9.96475
▁daddy	-9.9656
▁worm	-9.96576
▁effectively	-9.96592
▁feet	-9.96604
▁trade	-9.96609
▁tool	-9.96642
▁responsible	-9.96714
▁block	-9.9673
▁sheep	-9.96756
▁landed	-9.96795
▁structure	-9.96896
▁incorporating	-9.96938
▁forgive	-9.96962
▁film	-9.96989
▁hugs	-9.9709
▁v	-9.97123
▁solve	-9.97205
▁wood	-9.97263
▁grateful	-9.97265
▁alternative	-9.97293
▁net	-9.97405
int	-9.97472
▁stronger	-9.9748
▁explained	-9.97547
▁oil	-9.97572
▁given	-9.97653
od	-9.97678
▁traditions	-9.97762
▁built	-9.97792
▁hello	-9.97865
▁Another	-9.97876
▁bought	-9.97903
▁resilience	-9.97959
▁twist	-9.97989
▁peaceful	-9.97992
tu	-9.98115
▁progress	-9.98166
▁visual	-9.98331
▁ten	-9.98346
▁fear	-9.98348
ba	-9.98382
▁provides	-9.98436
▁pass	-9.98488
▁poor	-9.98491
▁tomorrow	-9.98546
▁religious	-9.98574
▁taken	-9.98674
▁strength	-9.98733
▁chased	-9.98903
▁sour	-9.98917
▁influence	-9.98918
▁selfish	-9.98927
rus	-9.98957
ite	-9.98978
▁lessons	-9.98999
▁spent	-9.99008
▁specifically	-9.99094
ga	-9.99096
▁backyard	-9.99108
▁size	-9.99389
▁mountain	-9.99418
ab	-9.99424
▁shows	-9.99582
▁decide	-9.9963
▁ideas	-9.99681
▁rocket	-9.99768
ub	-9.99789
ap	-9.99922
▁clouds	-9.9999
▁speak	-10.0002
rr	-10.0012
we	-10.0021
▁glass	-10.0021
▁dig	-10.0028
▁saved	-10.0032
▁Ex	-10.0036
▁Ho	-10.0045
▁brain	-10.0046
▁services	-10.0061
▁egg	-10.0067
▁quality	-10.0069
9	-10.0071
▁mo	-10.0073
▁file	-10.0077
▁wolf	-10.0078
▁rights	-10.0087
▁generations	-10.0087
▁record	-10.0093
▁teeth	-10.0104
▁writing	-10.0115
▁navigate	-10.0124
Come	-10.0136
▁age	-10.0146
py	-10.015
▁Ha	-10.0158
▁becomes	-10.0158
ton	-10.0163
▁requires	-10.0165
▁lock	-10.0175
▁Think	-10.0177
out	-10.0183
ng	-10.0189
▁surface	-10.0191
cu	-10.0193
▁Mi	-10.0197
▁families	-10.0199
▁square	-10.0199
▁vital	-10.02
▁gives	-10.02
ster	-10.0202
row	-10.0202
▁applications	-10.0203
ging	-10.0209
▁emotions	-10.021
▁suggest	-10.0213
▁appreciation	-10.0226
▁queen	-10.0226
▁pointed	-10.0228
▁sticks	-10.0231
▁scale	-10.0236
▁messy	-10.0241
▁neighbor	-10.0246
▁itself	-10.0249
▁sleepy	-10.025
▁independent	-10.0253
▁card	-10.0254
▁remains	-10.0257
▁studying	-10.0261
▁swimming	-10.027
▁solutions	-10.0278
▁breath	-10.0287
▁skin	-10.0288
K	-10.0289
side	-10.0291
▁Happy	-10.0295
▁waves	-10.0297
▁Chirpy	-10.0304
▁hours	-10.0315
▁x	-10.0315
▁significance	-10.0328
▁fan	-10.0329
ick	-10.033
▁relationship	-10.0333
▁mysterious	-10.0343
▁fresh	-10.0345
▁wearing	-10.0347
▁approaches	-10.0358
cho	-10.0381
▁Momo	-10.0382
▁beak	-10.0387
▁smelly	-10.0387
lin	-10.0388
▁Sa	-10.0388
▁created	-10.0395
▁People	-10.0396
▁connect	-10.04
▁rare	-10.0417
▁foot	-10.0419
▁measure	-10.0423
▁speed	-10.0425
ec	-10.0428
▁screen	-10.043
▁Ollie	-10.0431
tter	-10.0433
▁kick	-10.0434
bo	-10.045
▁thin	-10.0452
tive	-10.0453
▁taught	-10.0455
▁decisions	-10.0456
▁passed	-10.0456
▁mixed	-10.0458
▁businesses	-10.0491
▁War	-10.0493
dic	-10.0495
▁lovely	-10.0504
▁designed	-10.0514
▁Similarly	-10.0522
▁landscape	-10.053
▁Jimmy	-10.0533
my	-10.0537
iv	-10.0539
▁involved	-10.0543
▁sock	-10.0545
ification	-10.0553
▁Key	-10.0554
▁suit	-10.0562
▁nervous	-10.0569
▁giving	-10.0572
▁beliefs	-10.0583
cor	-10.0591
▁character	-10.0598
▁mail	-10.06
▁financial	-10.0602
▁During	-10.0611
▁afraid	-10.0614
com	-10.0621
▁action	-10.063
ang	-10.0638
▁thick	-10.0653
▁spirit	-10.0655
▁paw	-10.0664
ency	-10.0672
▁fake	-10.0675
▁pepper	-10.0678
▁drop	-10.068
▁New	-10.0686
▁Jerry	-10.0696
▁organized	-10.0707
▁wrap	-10.0708
▁expensive	-10.0708
▁search	-10.0715
ki	-10.0724
▁friendship	-10.073
▁societal	-10.0732
▁daughter	-10.0739
▁empathy	-10.0739
▁reduce	-10.0739
ain	-10.0741
▁ourselves	-10.0742
fer	-10.0751
▁collaboration	-10.0751
▁ducks	-10.0758
▁basic	-10.0758
▁curiosity	-10.0769
▁outcomes	-10.077
▁Mar	-10.0772
▁delicate	-10.0775
▁vegetables	-10.0779
▁display	-10.0785
▁ma	-10.0797
ho	-10.0815
▁state	-10.082
▁wing	-10.0821
▁interest	-10.0827
▁account	-10.083
▁ongoing	-10.0831
▁feed	-10.0837
▁Next	-10.0843
▁project	-10.0846
▁Doggy	-10.0846
▁economic	-10.0852
▁sources	-10.0852
▁crayons	-10.0862
▁lose	-10.0866
ak	-10.0884
▁happens	-10.0884
▁shadow	-10.089
▁boring	-10.089
▁zoo	-10.0892
▁fiction	-10.0902
▁aspect	-10.0907
▁jumping	-10.0908
▁circle	-10.0913
▁chew	-10.0924
▁flag	-10.0924
▁addressing	-10.0926
▁zoom	-10.0932
▁distance	-10.0933
▁effective	-10.0947
▁sandwich	-10.095
▁God	-10.0953
▁whenever	-10.0956
comp	-10.0958
aw	-10.096
ach	-10.0967
▁network	-10.0967
ru	-10.0971
▁dancing	-10.0977
▁extra	-10.0982
▁second	-10.0986
▁polite	-10.0986
▁creativity	-10.099
▁seeking	-10.0998
▁countries	-10.1003
ition	-10.1005
▁metal	-10.1006
based	-10.1012
▁actions	-10.1012
ven	-10.1016
▁edge	-10.1018
▁core	-10.1021
▁finger	-10.1028
▁middle	-10.103
▁discuss	-10.1032
▁II	-10.1051
Stop	-10.1051
▁identify	-10.1051
▁image	-10.1052
▁aim	-10.1055
▁increased	-10.1058
▁either	-10.1059
▁tough	-10.1069
▁gr	-10.1085
My	-10.109
▁multi	-10.1097
▁ingredients	-10.1117
▁smelled	-10.1122
▁Art	-10.1123
▁Bobby	-10.1127
▁goals	-10.1139
▁Se	-10.1143
▁medical	-10.1157
▁eggs	-10.1161
▁appeared	-10.1171
▁Lo	-10.118
▁trick	-10.1183
▁rose	-10.1197
▁offering	-10.1198
▁meal	-10.1202
▁connection	-10.1205
▁movie	-10.1226
▁Throughout	-10.1226
▁J	-10.125
▁risk	-10.1258
▁sell	-10.126
▁shine	-10.127
▁couch	-10.127
▁furry	-10.1271
▁war	-10.1274
▁rough	-10.1276
▁hi	-10.1283
▁4:	-10.1287
▁Gr	-10.1288
▁method	-10.1291
▁tape	-10.1295
▁bossy	-10.1298
▁tidy	-10.1299
ple	-10.1302
ets	-10.1308
▁evidence	-10.1315
art	-10.1321
▁Ta	-10.1322
▁understood	-10.1328
▁ladder	-10.1341
▁single	-10.1346
▁carrot	-10.1347
▁tells	-10.1349
▁topics	-10.136
▁w	-10.1363
▁engine	-10.137
▁Mum	-10.1372
▁collect	-10.1377
ring	-10.1384
one	-10.139
▁eventually	-10.1393
▁unusual	-10.14
▁glue	-10.1403
▁setting	-10.1415
▁cleaned	-10.1417
▁dead	-10.142
▁representation	-10.1427
▁items	-10.1441
▁weight	-10.1442
▁researchers	-10.1443
▁Earth	-10.1445
▁ocean	-10.1445
▁range	-10.1446
▁bounce	-10.1456
▁pretended	-10.1464
▁stress	-10.1465
▁deer	-10.147
▁minutes	-10.1473
▁gate	-10.1475
▁relevant	-10.1482
▁depend	-10.1484
▁wrote	-10.1492
▁broader	-10.1497
cent	-10.1522
▁gun	-10.1527
▁photo	-10.1538
making	-10.1538
use	-10.1543
▁towel	-10.1548
▁cone	-10.1554
▁innovative	-10.1564
▁thoughtful	-10.1575
▁standing	-10.1575
▁splashed	-10.1579
▁meaning	-10.1585
▁training	-10.1589
wh	-10.1594
gn	-10.1594
▁useful	-10.1598
▁results	-10.1602
▁joke	-10.1609
day	-10.1615
▁manage	-10.1626
▁particular	-10.1627
▁meat	-10.1628
ther	-10.1632
▁section	-10.1633
qui	-10.1636
ep	-10.1661
las	-10.1667
ular	-10.1668
▁legal	-10.1676
▁leaving	-10.1685
▁branches	-10.1692
wi	-10.1694
▁separate	-10.1695
fe	-10.1696
▁prince	-10.1708
▁gold	-10.1708
▁kid	-10.1716
▁covered	-10.1718
▁fill	-10.1718
ound	-10.172
▁carried	-10.1725
work	-10.1726
j	-10.1728
▁Sammy	-10.1736
▁period	-10.1746
▁Tiny	-10.1749
▁np	-10.1749
▁wheel	-10.175
▁half	-10.1763
▁Br	-10.1763
▁crack	-10.177
▁position	-10.177
▁awareness	-10.1774
▁Who	-10.1776
▁diversity	-10.1776
▁Si	-10.1786
▁intricate	-10.1803
▁exploration	-10.1807
ome	-10.1807
▁compared	-10.1807
▁season	-10.1809
▁camera	-10.1811
red	-10.1816
▁programs	-10.1819
▁smiling	-10.1824
▁tasks	-10.1837
▁island	-10.1839
▁already	-10.1865
io	-10.1868
▁roles	-10.1869
▁dec	-10.1873
▁main	-10.1878
▁gas	-10.1878
▁developing	-10.1879
▁handle	-10.1886
▁heat	-10.1887
▁meant	-10.1891
▁scarf	-10.1893
▁options	-10.1898
▁clock	-10.1903
▁noisy	-10.1906
▁escape	-10.1906
▁goal	-10.1914
▁chance	-10.192
▁policies	-10.1923
▁increase	-10.1924
▁screamed	-10.1924
▁technologies	-10.1927
▁tries	-10.1932
▁import	-10.1935
que	-10.1935
▁wand	-10.1938
▁unlock	-10.1955
▁symbol	-10.1955
▁beauty	-10.1965
▁sauce	-10.1971
▁label	-10.1976
▁glow	-10.1977
▁ashamed	-10.1978
▁dish	-10.198
▁engagement	-10.1981
▁exist	-10.1986
▁pack	-10.1995
ex	-10.2008
▁seed	-10.2008
▁encounter	-10.2012
▁generous	-10.2034
ify	-10.2035
Now	-10.2035
▁studies	-10.2037
▁Little	-10.2039
▁roar	-10.204
▁clown	-10.2041
▁loves	-10.2043
▁involving	-10.2044
▁serious	-10.2044
ink	-10.2051
▁argue	-10.2052
▁differences	-10.2054
▁appropriate	-10.2055
▁changed	-10.2061
▁Bear	-10.2062
rn	-10.2069
▁ability	-10.2074
▁Pa	-10.2077
▁comfort	-10.2081
▁whale	-10.2083
▁object	-10.2092
▁Title	-10.21
cal	-10.2102
lar	-10.2114
▁World	-10.2116
▁dinosaur	-10.2118
▁embark	-10.2118
▁Taylor	-10.2121
▁celebrate	-10.2122
▁seeds	-10.2126
of	-10.2128
▁inter	-10.2137
▁keeping	-10.2142
▁chase	-10.2144
▁pressure	-10.2146
midst	-10.2148
▁se	-10.2168
▁situations	-10.2183
▁represent	-10.2185
▁lazy	-10.2188
▁justice	-10.2201
cur	-10.2201
▁Li	-10.2203
▁weird	-10.2213
▁Python	-10.2217
▁truth	-10.2217
▁complete	-10.2217
ns	-10.2221
br	-10.2224
ier	-10.2227
▁meaningful	-10.2236
▁wisdom	-10.2238
▁planning	-10.224
▁demand	-10.2241
ration	-10.2243
▁ha	-10.2248
▁recognize	-10.225
▁soap	-10.2267
ress	-10.227
tin	-10.2276
▁bodies	-10.2277
▁magnet	-10.2277
▁send	-10.228
▁bath	-10.2283
▁greater	-10.2286
▁climate	-10.2292
▁current	-10.2306
▁load	-10.2308
▁develop	-10.2309
▁clay	-10.2317
▁platforms	-10.232
▁event	-10.2327
▁content	-10.2331
▁chest	-10.2331
▁risks	-10.2333
▁#	-10.2333
▁cop	-10.2341
ray	-10.2345
▁meeting	-10.2351
▁march	-10.2352
▁qu	-10.2356
▁hero	-10.2357
▁chi	-10.2362
▁Ducky	-10.2363
▁Emily	-10.2367
▁Keep	-10.2367
▁temperature	-10.2381
▁added	-10.2385
▁Riley	-10.2389
▁almost	-10.2392
ze	-10.2396
▁happening	-10.2398
▁tap	-10.2407
Help	-10.2409
creasingly	-10.2412
▁police	-10.2414
▁listening	-10.2417
▁cage	-10.2419
ob	-10.2421
▁list	-10.2429
▁distinct	-10.2434
rm	-10.2442
▁discussions	-10.2447
▁hospital	-10.245
▁reward	-10.2455
▁eager	-10.2457
▁Please	-10.2458
▁collective	-10.2459
▁aimed	-10.2462
ell	-10.247
▁sp	-10.2472
ians	-10.2476
▁ants	-10.2482
▁butter	-10.2488
▁scissors	-10.249
▁weather	-10.249
▁candle	-10.2491
▁experiment	-10.2497
▁y	-10.2499
▁Th	-10.2499
▁environments	-10.25
▁closely	-10.2501
▁involve	-10.2508
▁elderly	-10.2508
▁plot	-10.2511
▁cap	-10.2515
▁berries	-10.2519
How	-10.2521
pro	-10.2539
bb	-10.2543
▁tent	-10.2543
▁represents	-10.2543
▁encourage	-10.2546
und	-10.2549
▁Car	-10.2562
▁informed	-10.2565
▁earlier	-10.2567
▁five	-10.2571
▁via	-10.2571
See	-10.2571
▁Are	-10.2574
ware	-10.2575
ise	-10.2584
▁century	-10.2593
▁picnic	-10.2607
▁vehicle	-10.2607
▁message	-10.2618
▁drank	-10.2623
▁stream	-10.2625
▁pencil	-10.2626
▁worldwide	-10.2626
ron	-10.2631
▁creatures	-10.2635
range	-10.2656
▁happiness	-10.2659
▁Fa	-10.2661
▁unknown	-10.2667
▁dreams	-10.2677
▁kiss	-10.2684
▁nut	-10.2684
▁painted	-10.2688
▁al	-10.2693
▁Ad	-10.2693
▁lines	-10.2694
▁crown	-10.2696
▁bald	-10.27
▁models	-10.2704
▁Pre	-10.2706
▁thread	-10.2708
▁Per	-10.2714
ay	-10.2726
▁flexible	-10.2726
▁Al	-10.2739
▁professional	-10.2742
▁Jim	-10.2751
▁rise	-10.2755
▁reliable	-10.2756
▁projects	-10.276
▁gets	-10.2772
▁dialogue	-10.2775
▁poem	-10.2776
▁Jordan	-10.2782
ible	-10.2783
▁joined	-10.2791
ces	-10.28
▁icy	-10.2803
lly	-10.2827
▁journal	-10.2831
▁dough	-10.2832
▁Y	-10.2836
▁pumpkin	-10.2843
▁club	-10.2843
▁dizzy	-10.2846
▁def	-10.2852
▁movement	-10.2855
▁spray	-10.2855
▁kindness	-10.2864
▁mask	-10.2889
▁guitar	-10.2892
▁dynamics	-10.2893
▁ahead	-10.2903
▁ordinary	-10.2911
▁Ella	-10.2924
▁enable	-10.293
▁closet	-10.2936
▁gem	-10.2939
die	-10.2939
▁driving	-10.2942
▁lamp	-10.2946
▁Brown	-10.2961
▁vase	-10.2965
for	-10.2971
▁sword	-10.2973
ind	-10.2974
▁et	-10.2984
▁Casey	-10.2985
▁damage	-10.2991
▁fuel	-10.2999
ade	-10.3006
▁lit	-10.3016
▁products	-10.3016
▁tasted	-10.3018
▁radio	-10.302
▁quite	-10.3022
▁jam	-10.3027
mit	-10.3028
graph	-10.303
▁objects	-10.3037
uinn	-10.3041
▁professionals	-10.3044
fo	-10.3058
vo	-10.306
▁fragile	-10.306
▁soil	-10.3065
▁super	-10.3068
▁embarrassed	-10.3072
vent	-10.3073
ators	-10.3074
term	-10.3075
▁Avery	-10.3076
▁devices	-10.3083
lec	-10.3091
▁chain	-10.3095
▁stretch	-10.3096
▁office	-10.3097
▁government	-10.3098
▁starting	-10.3099
▁contain	-10.3104
tur	-10.3114
▁company	-10.3115
▁balls	-10.3117
▁simply	-10.3118
▁Morgan	-10.3122
ants	-10.3123
▁shark	-10.3126
▁notice	-10.3133
▁sc	-10.3145
gy	-10.3156
▁knows	-10.3158
ctor	-10.3158
▁sustainable	-10.3162
▁Will	-10.3172
▁clap	-10.3172
▁rat	-10.3173
▁serves	-10.318
gar	-10.3181
▁competitive	-10.3185
vis	-10.3185
▁scare	-10.3186
▁choices	-10.3189
▁excitement	-10.3193
ave	-10.3195
tan	-10.3204
▁Vi	-10.3214
▁bin	-10.3225
nu	-10.3227
▁Dakota	-10.3236
▁dishes	-10.3238
▁wake	-10.324
▁bloom	-10.3255
▁alongside	-10.3257
▁miss	-10.3261
▁nuts	-10.3267
▁gather	-10.3267
▁Lesson	-10.3271
ified	-10.3272
▁yarn	-10.3275
▁shout	-10.3275
▁material	-10.3291
▁father	-10.3295
▁actually	-10.3304
▁cube	-10.3315
▁boundaries	-10.3318
▁knocked	-10.3325
▁Logan	-10.3327
fa	-10.333
▁week	-10.3338
▁teaching	-10.3342
▁wire	-10.3342
▁managing	-10.3343
▁bark	-10.3344
▁waste	-10.3346
▁embracing	-10.3346
▁primary	-10.3346
▁cause	-10.3346
tri	-10.3356
▁production	-10.3359
▁shoot	-10.3362
▁Reese	-10.3362
▁shoe	-10.3362
▁mighty	-10.3364
▁Un	-10.3366
▁mistake	-10.3368
▁allowed	-10.3369
▁innovation	-10.3372
▁salt	-10.3383
▁laws	-10.3389
▁balloons	-10.3389
▁Jake	-10.3391
Where	-10.3393
▁spring	-10.3402
▁indigenous	-10.341
▁stubborn	-10.341
▁frustrated	-10.3414
▁movements	-10.3416
▁spend	-10.3422
▁glove	-10.3422
nk	-10.3423
ack	-10.3425
▁occur	-10.3426
Max	-10.3427
▁blood	-10.343
▁rice	-10.3431
▁spark	-10.3432
▁collection	-10.3438
▁brilliant	-10.3442
▁ethical	-10.345
▁however	-10.345
▁price	-10.3454
▁ago	-10.3456
ulation	-10.3457
▁Dis	-10.3459
▁fierce	-10.3462
▁neck	-10.347
cy	-10.3476
tern	-10.3477
J	-10.3478
men	-10.3479
▁scientists	-10.3484
▁target	-10.3492
fit	-10.35
▁impressive	-10.3502
▁nod	-10.3505
▁flow	-10.3511
▁belong	-10.3512
▁bottom	-10.3514
▁tiger	-10.3514
▁exercise	-10.3519
▁location	-10.3527
▁wagon	-10.3528
▁saying	-10.3528
▁jealous	-10.3539
▁usually	-10.3539
▁deliver	-10.3541
▁sports	-10.3541
▁produce	-10.3546
▁images	-10.355
▁witch	-10.3555
▁policy	-10.3559
▁corn	-10.3564
▁Andy	-10.3569
▁bar	-10.3572
▁terms	-10.3576
den	-10.3584
▁easily	-10.3587
ft	-10.3593
▁rot	-10.36
▁provided	-10.3606
▁introduce	-10.3611
▁yelled	-10.3612
gg	-10.3618
pos	-10.3635
▁harm	-10.3641
▁religion	-10.3645
ah	-10.3647
bu	-10.3648
▁Jenny	-10.3657
▁receive	-10.3672
▁Look	-10.3673
▁salad	-10.3673
▁possess	-10.3681
▁texts	-10.3686
▁interests	-10.3694
▁managed	-10.3706
▁functions	-10.3707
▁pirate	-10.371
▁soar	-10.3715
ins	-10.3717
▁trans	-10.3721
▁relieved	-10.3723
▁gained	-10.3732
▁smoke	-10.3735
▁cart	-10.3738
▁Research	-10.3751
▁terrible	-10.3751
▁kicked	-10.3756
▁express	-10.3765
▁camp	-10.3765
▁loyal	-10.3767
uck	-10.3769
▁mentioned	-10.3769
▁crystal	-10.3772
▁vast	-10.3776
mar	-10.3777
ged	-10.3782
Mommy	-10.3787
▁Na	-10.3789
▁bubbles	-10.3791
▁input	-10.3794
ag	-10.3795
▁expression	-10.3796
▁America	-10.3805
▁authors	-10.3805
▁above	-10.3805
▁cell	-10.3809
▁realm	-10.3817
▁reducing	-10.3822
▁Indigenous	-10.3835
▁horn	-10.3835
▁demonstrate	-10.3838
▁cheap	-10.3839
by	-10.384
▁bitter	-10.3842
ld	-10.3845
▁shore	-10.3847
▁treatment	-10.3848
ump	-10.3851
▁heritage	-10.386
▁stones	-10.3865
▁consequences	-10.3876
▁equipment	-10.3877
ory	-10.3882
▁Pe	-10.3883
▁civil	-10.3889
▁advanced	-10.3893
▁Di	-10.3893
▁level	-10.3894
su	-10.3897
▁sheet	-10.3899
error	-10.3907
▁explored	-10.3908
▁la	-10.3919
▁settings	-10.3921
▁Cr	-10.3929
▁international	-10.3931
▁entire	-10.3937
ler	-10.3938
▁walls	-10.3942
▁tri	-10.3946
▁borrow	-10.3952
gi	-10.3954
▁empower	-10.3954
▁fields	-10.3954
cl	-10.3957
Me	-10.3962
▁bathroom	-10.3965
00	-10.3968
▁harsh	-10.3982
▁barn	-10.3982
▁becoming	-10.3985
▁ending	-10.3987
pr	-10.3987
▁center	-10.399
cing	-10.3992
▁dull	-10.3994
▁dove	-10.3996
ey	-10.3996
▁Use	-10.401
▁faith	-10.4016
▁memory	-10.4024
▁0	-10.4024
▁abilities	-10.4031
Well	-10.4038
mod	-10.4038
▁snacks	-10.4044
▁Ca	-10.4049
▁initial	-10.4073
▁hose	-10.4073
▁report	-10.4082
ral	-10.4097
▁behave	-10.4097
▁languages	-10.4102
▁scream	-10.4106
▁Although	-10.4109
▁written	-10.4118
▁loop	-10.4118
▁Pat	-10.412
▁crazy	-10.4122
▁umbrella	-10.4127
▁dug	-10.4136
▁improved	-10.4144
▁effects	-10.4145
▁vine	-10.4151
▁guidance	-10.4157
▁zip	-10.4165
▁showing	-10.417
▁peace	-10.4173
▁Consider	-10.4182
▁goat	-10.4183
▁clumsy	-10.4187
▁persistent	-10.4187
▁searched	-10.4191
▁adventurous	-10.4204
▁vibrant	-10.4204
▁appear	-10.4211
▁marble	-10.4217
▁truly	-10.4226
▁employ	-10.4231
▁nurse	-10.4239
Who	-10.4243
▁shade	-10.4252
ina	-10.4254
▁stranger	-10.4258
▁holds	-10.4261
▁scientific	-10.4261
▁wealthy	-10.4278
▁explain	-10.4284
▁washed	-10.4288
▁product	-10.4288
▁practicing	-10.4291
date	-10.4295
▁distribution	-10.4295
▁reality	-10.43
▁dust	-10.43
▁adding	-10.4301
oom	-10.4316
ara	-10.4316
▁forth	-10.4323
▁triangle	-10.4326
▁exchange	-10.4329
▁10	-10.433
▁Peter	-10.4331
▁needle	-10.4334
fr	-10.4342
▁math	-10.4345
▁Both	-10.4346
▁knife	-10.4348
▁repair	-10.4348
▁changing	-10.4352
▁fundamental	-10.4357
▁polish	-10.4361
▁pipe	-10.4366
▁nosy	-10.4373
▁Ka	-10.4377
▁Ju	-10.4377
▁comb	-10.4379
▁hoop	-10.438
▁predict	-10.4388
du	-10.4391
nes	-10.4392
▁thoughts	-10.4395
str	-10.4401
▁tricks	-10.4411
▁foolish	-10.4414
▁rug	-10.4415
▁protection	-10.4417
▁acorn	-10.4423
▁slid	-10.4428
rag	-10.4429
▁activity	-10.4432
▁craft	-10.4443
▁prize	-10.4446
▁thankful	-10.4446
▁figures	-10.4448
▁bull	-10.4452
nd	-10.4453
▁networks	-10.4455
▁church	-10.4463
▁uncomfortable	-10.4463
▁toast	-10.4464
▁Ga	-10.447
▁gathered	-10.4475
If	-10.4476
▁jet	-10.4483
wa	-10.4487
▁wellbeing	-10.449
▁trends	-10.4492
▁analyze	-10.4494
▁Example	-10.4496
fin	-10.4506
▁apply	-10.4511
▁roof	-10.4512
ological	-10.4513
▁parent	-10.4515
eg	-10.4522
▁reveal	-10.4523
▁security	-10.4534
▁Sp	-10.4537
▁alike	-10.4541
▁steal	-10.4543
▁era	-10.4545
▁answered	-10.4546
port	-10.4547
▁prepare	-10.4552
▁Using	-10.4553
▁creature	-10.4559
mp	-10.4559
tric	-10.456
▁humble	-10.4561
▁older	-10.4566
▁grown	-10.4567
▁relax	-10.4571
▁Bi	-10.4577
▁enhanc	-10.4577
▁enormous	-10.4579
ka	-10.458
▁quick	-10.4586
▁frightened	-10.4593
log	-10.4596
▁tour	-10.4598
ious	-10.4602
▁require	-10.4608
▁ultimately	-10.4608
▁negative	-10.462
▁5:	-10.4621
▁spiritual	-10.4623
▁carrots	-10.4624
▁agree	-10.4627
▁judge	-10.4629
▁pair	-10.463
bor	-10.4633
▁Ja	-10.4638
▁enjoying	-10.4639
▁sunshine	-10.4642
▁III	-10.4646
▁arrow	-10.4651
▁loss	-10.4655
qua	-10.4656
▁worth	-10.4663
▁spaces	-10.4665
cep	-10.4668
▁spoiled	-10.467
▁classroom	-10.467
sk	-10.4671
▁men	-10.4672
▁Christian	-10.4672
▁stove	-10.4678
▁stuff	-10.4687
let	-10.4687
ography	-10.4689
▁stamp	-10.4692
▁Background	-10.4697
uc	-10.4697
▁array	-10.47
par	-10.47
▁statue	-10.4701
▁equal	-10.4702
▁inspire	-10.4702
▁term	-10.4704
▁facilitate	-10.4707
rate	-10.4707
▁strengthen	-10.4707
▁adopt	-10.4715
ris	-10.4716
▁20	-10.4719
▁industry	-10.4719
▁n	-10.4727
▁conversations	-10.4732
house	-10.4737
▁bi	-10.4744
▁sunflower	-10.4747
▁paws	-10.4747
▁belt	-10.4752
▁experienced	-10.4753
▁yield	-10.4756
Sorry	-10.4756
▁necklace	-10.476
▁tube	-10.4768
lum	-10.4769
▁typically	-10.477
ped	-10.4777
▁returned	-10.4779
▁advancements	-10.4784
▁harder	-10.4785
▁Rex	-10.4785
▁ho	-10.4787
▁Exploring	-10.4788
▁details	-10.479
▁pour	-10.4798
▁replace	-10.4804
▁offered	-10.4804
▁gloomy	-10.4806
▁amount	-10.4806
▁enables	-10.481
▁optimal	-10.4811
▁style	-10.4818
▁captivating	-10.482
▁encourages	-10.4821
▁lower	-10.4827
▁thanks	-10.4836
▁enabling	-10.4843
▁jungle	-10.4843
▁crawl	-10.4843
▁safely	-10.4846
arch	-10.4846
board	-10.4847
▁asleep	-10.4848
▁fold	-10.4852
▁preserving	-10.4857
▁raise	-10.4858
▁conflict	-10.4861
hu	-10.4865
▁measures	-10.4868
▁sighed	-10.4869
▁compassionate	-10.4876
▁rely	-10.488
▁pin	-10.488
▁aren	-10.4883
pon	-10.4885
matic	-10.4888
ans	-10.4889
▁blow	-10.4895
Ben	-10.4902
▁deeply	-10.4903
▁advice	-10.4903
▁swan	-10.4903
lines	-10.4905
▁stumbled	-10.4906
▁jog	-10.4907
uff	-10.4916
▁piano	-10.4917
▁task	-10.4918
▁transformation	-10.4918
▁guard	-10.4922
▁Not	-10.4925
▁discussing	-10.4929
pt	-10.493
▁gum	-10.494
▁tied	-10.4944
mb	-10.4947
▁jug	-10.4949
▁tank	-10.495
▁partner	-10.4971
rk	-10.4972
▁insect	-10.4973
▁gear	-10.4974
zz	-10.4975
▁tag	-10.4977
▁schools	-10.4981
▁leaders	-10.499
▁banana	-10.4994
▁caterpillar	-10.4997
▁examples	-10.4998
▁coffee	-10.5001
▁genre	-10.5001
▁users	-10.5001
▁package	-10.5017
her	-10.5018
▁cutting	-10.5024
▁thirsty	-10.5025
▁pasta	-10.503
▁bedroom	-10.5036
▁easier	-10.5048
▁mole	-10.505
▁bored	-10.5053
▁active	-10.5056
ff	-10.506
▁Act	-10.5064
▁recent	-10.5064
▁lies	-10.5066
▁anxious	-10.5072
▁passion	-10.5072
▁jewel	-10.5075
▁helmet	-10.5076
▁roots	-10.5077
▁rates	-10.5086
▁Su	-10.5094
▁costume	-10.5105
▁initiatives	-10.5106
▁additional	-10.5108
▁focused	-10.511
▁moments	-10.5113
▁apart	-10.5115
Here	-10.5121
▁angel	-10.5124
▁pattern	-10.5128
▁frame	-10.5128
▁museum	-10.5129
ute	-10.5129
▁sink	-10.5133
▁pale	-10.5134
▁desk	-10.5154
▁user	-10.5158
▁melt	-10.5164
▁mushroom	-10.5176
▁toward	-10.5177
sis	-10.518
▁peach	-10.5181
▁nail	-10.5191
▁graceful	-10.5192
▁tension	-10.5201
▁extract	-10.5204
ned	-10.5204
▁letters	-10.5209
▁switch	-10.521
▁Examples	-10.5213
▁difference	-10.5216
▁emerging	-10.5224
▁hears	-10.5224
▁station	-10.5224
▁incorporate	-10.5234
▁enter	-10.5235
▁remind	-10.5242
▁counter	-10.5244
cro	-10.5247
pl	-10.5248
▁cells	-10.5251
▁fountain	-10.5258
▁hairy	-10.5267
▁counted	-10.527
▁situation	-10.5274
▁species	-10.5277
▁k	-10.5284
▁Man	-10.5288
▁established	-10.5288
▁stupid	-10.5291
▁__	-10.5292
▁improvement	-10.5293
▁peanut	-10.5296
▁career	-10.5297
▁intelligent	-10.5301
▁populations	-10.5304
ear	-10.5304
▁$$	-10.5309
▁Dialogue	-10.5311
▁wander	-10.5311
▁United	-10.5312
ook	-10.5315
like	-10.5321
▁True	-10.5322
▁Historical	-10.5325
▁heal	-10.5329
▁belonged	-10.5332
▁creation	-10.5333
▁cleaning	-10.5335
▁ghost	-10.5344
▁tunnel	-10.5344
▁educational	-10.536
▁fridge	-10.5364
▁artistic	-10.5364
▁solid	-10.5364
▁literary	-10.5379
▁feature	-10.5379
Are	-10.5384
▁response	-10.5388
▁forces	-10.5389
▁jolly	-10.5398
▁theory	-10.5399
▁technological	-10.5403
▁secure	-10.5403
▁cheerful	-10.5403
▁resist	-10.5411
▁calculate	-10.5413
chi	-10.5413
▁careless	-10.5425
▁seal	-10.5426
▁organize	-10.5428
ever	-10.5431
▁expectations	-10.5438
igh	-10.5439
▁----------	-10.5441
▁guidelines	-10.5443
▁required	-10.5451
▁patience	-10.5452
▁distant	-10.5452
▁garage	-10.5452
▁benefit	-10.5452
▁inspired	-10.5456
lan	-10.5456
▁trap	-10.546
▁disagree	-10.5462
▁ear	-10.5465
▁musician	-10.5478
▁emphasize	-10.5481
▁sight	-10.5482
▁tooth	-10.5483
ren	-10.5483
▁playful	-10.5494
▁cooked	-10.5505
bit	-10.5506
aid	-10.551
east	-10.5511
▁capable	-10.5513
▁existing	-10.5518
▁region	-10.552
▁200	-10.5527
▁dolphin	-10.5531
▁spell	-10.5531
▁foundation	-10.5532
cc	-10.5542
ture	-10.5542
cr	-10.5547
▁goose	-10.5555
▁student	-10.5558
▁interact	-10.556
▁respond	-10.556
▁boxes	-10.5564
▁nods	-10.5568
▁national	-10.5571
▁Inter	-10.5583
▁disgusting	-10.559
▁memories	-10.5595
▁software	-10.5598
▁staff	-10.56
▁familiar	-10.561
▁mailbox	-10.561
▁skill	-10.561
▁proper	-10.5612
▁Real	-10.5616
▁myself	-10.5617
▁saving	-10.5627
life	-10.563
▁causing	-10.5635
▁---------------	-10.5638
▁uses	-10.5641
▁larger	-10.5641
▁weigh	-10.5643
▁hay	-10.5649
▁rub	-10.5652
▁raced	-10.5654
▁spotted	-10.5659
▁Chi	-10.566
▁behaviors	-10.5661
▁technique	-10.5664
▁inherent	-10.5665
▁succeed	-10.567
▁companies	-10.5675
pic	-10.5676
▁hammer	-10.568
▁African	-10.5689
▁invited	-10.5693
▁squash	-10.57
▁fork	-10.5704
▁remove	-10.5707
▁jeep	-10.571
▁Ru	-10.5712
▁parties	-10.5713
▁Har	-10.5717
▁IV	-10.5721
▁European	-10.5723
ky	-10.5724
▁academic	-10.5725
night	-10.573
▁pigeon	-10.573
▁wheat	-10.573
▁practical	-10.5735
▁urban	-10.5735
▁raven	-10.5735
oo	-10.5741
▁limit	-10.5741
▁patients	-10.5748
▁jacket	-10.575
▁iron	-10.5757
▁define	-10.576
▁tire	-10.5763
▁mis	-10.5764
▁radish	-10.5766
▁slipped	-10.5771
▁score	-10.5772
▁adapt	-10.5775
▁norms	-10.5777
▁determined	-10.5778
▁disappointed	-10.5781
▁universe	-10.5781
▁feather	-10.5783
▁struggle	-10.5785
▁practiced	-10.5801
▁societies	-10.5806
▁pebble	-10.5811
▁lime	-10.5811
▁Health	-10.5817
▁popcorn	-10.5821
▁crane	-10.5821
▁lights	-10.5823
▁Miss	-10.5824
▁navigating	-10.5826
▁Ri	-10.5827
▁Red	-10.5829
▁Wa	-10.5833
▁interactions	-10.5842
▁dedicated	-10.5842
▁identities	-10.5842
▁lizard	-10.5842
ew	-10.5843
▁preferences	-10.5847
▁connected	-10.5853
▁decorate	-10.5857
▁styles	-10.586
▁supporting	-10.5866
mark	-10.5866
▁Bu	-10.5871
atch	-10.5876
▁dear	-10.5878
mal	-10.5882
▁series	-10.5883
▁lively	-10.5884
▁lifted	-10.5888
▁attractive	-10.5889
▁onion	-10.5893
▁profound	-10.5894
Sam	-10.5903
▁alert	-10.5905
▁invite	-10.5916
▁Consequent	-10.5918
▁parrot	-10.5918
▁4	-10.5919
▁fearful	-10.5926
▁flour	-10.5928
▁obedient	-10.5929
▁bicycle	-10.5929
▁storytelling	-10.5934
▁emerged	-10.5938
▁diamond	-10.5939
▁cries	-10.5951
▁mu	-10.5956
low	-10.5956
▁Mon	-10.5964
▁ears	-10.5965
▁tend	-10.5965
▁operations	-10.5974
▁hats	-10.5986
Go	-10.5987
▁pear	-10.599
▁crocodile	-10.5991
aries	-10.6009
▁miserable	-10.6011
▁van	-10.6013
()	-10.6013
▁supply	-10.6017
▁coins	-10.6017
sha	-10.6034
▁primarily	-10.6037
▁bracelet	-10.6053
▁tears	-10.6061
▁issue	-10.6061
▁summer	-10.6064
▁mechanic	-10.6069
▁wrapped	-10.6069
▁base	-10.6072
▁capture	-10.6074
▁source	-10.6078
▁believed	-10.6086
▁hall	-10.6086
▁signs	-10.6089
▁adjust	-10.6094
lat	-10.6096
▁uncle	-10.6096
▁aunt	-10.6104
▁Mrs	-10.6106
▁taxi	-10.6107
▁implications	-10.611
▁whose	-10.6115
set	-10.6125
▁accept	-10.6128
▁5	-10.6131
▁knot	-10.6132
▁nation	-10.6134
▁melon	-10.6137
▁analyzing	-10.6142
▁fl	-10.6145
▁application	-10.6145
cream	-10.615
▁reason	-10.6158
▁dependable	-10.6161
▁powder	-10.6163
cycle	-10.6168
▁row	-10.6174
▁starts	-10.6195
ush	-10.6196
▁Sha	-10.6199
▁blend	-10.62
▁cost	-10.6204
▁football	-10.6211
▁crayon	-10.6215
▁institutions	-10.622
▁findings	-10.6225
▁pants	-10.6225
▁cards	-10.6229
▁service	-10.6237
▁communicate	-10.6237
ord	-10.6245
med	-10.6257
▁crawled	-10.6263
▁Practice	-10.6263
▁filthy	-10.6263
▁waffle	-10.6269
▁therapy	-10.6271
▁winter	-10.6274
▁grant	-10.6275
▁rule	-10.6277
▁avoid	-10.6278
▁strip	-10.6282
▁virtual	-10.6285
ivity	-10.6287
▁charming	-10.629
▁politics	-10.629
ble	-10.6293
▁flashlight	-10.6296
▁Polly	-10.6296
▁respectful	-10.6302
▁adults	-10.6305
▁brick	-10.6307
▁motor	-10.6307
ath	-10.6311
▁According	-10.6317
▁fluffy	-10.6317
▁improving	-10.6317
▁costs	-10.6318
▁exhibit	-10.6322
▁locked	-10.6324
▁harmless	-10.6329
▁Activity	-10.6334
▁according	-10.6338
▁rod	-10.6338
▁Wi	-10.6339
▁generate	-10.6341
▁establish	-10.6342
Fi	-10.6346
▁tales	-10.6352
▁whispered	-10.6355
▁lens	-10.6364
▁texture	-10.6376
▁states	-10.6383
In	-10.6395
▁envelope	-10.6403
▁restaurant	-10.6403
▁beetle	-10.642
mic	-10.6426
▁commitment	-10.6443
▁combine	-10.645
▁plastic	-10.6457
▁lie	-10.6463
▁dynamic	-10.6464
tar	-10.6467
fect	-10.6467
▁Persona	-10.647
▁kissed	-10.6472
▁cocoa	-10.6478
▁split	-10.6495
ase	-10.6496
nce	-10.6498
▁cactus	-10.65
▁yogurt	-10.6506
▁feathers	-10.6509
▁anti	-10.6517
▁deaf	-10.6518
▁States	-10.6523
▁coal	-10.6525
▁App	-10.6527
wn	-10.6534
▁comic	-10.6535
ature	-10.6535
▁operation	-10.6535
▁cable	-10.6539
▁bulb	-10.6544
▁everyday	-10.6548
▁continues	-10.6548
▁jelly	-10.6549
▁guilty	-10.6549
enc	-10.6555
▁flute	-10.6562
our	-10.6562
▁author	-10.6564
▁disturb	-10.6566
▁hopping	-10.6573
▁mineral	-10.6589
▁peer	-10.6599
▁Among	-10.6599
ric	-10.66
ender	-10.6601
▁conduct	-10.6602
▁responsibility	-10.6604
▁helicopter	-10.661
▁claim	-10.661
▁messages	-10.6611
▁pushing	-10.6614
▁consist	-10.6614
▁trunk	-10.6615
▁appeal	-10.6615
▁names	-10.6621
gue	-10.6624
bl	-10.6624
▁condition	-10.6628
▁falls	-10.6629
▁fellow	-10.6637
▁facing	-10.6637
▁eraser	-10.6638
▁wife	-10.6643
▁notebook	-10.6643
▁sleeping	-10.6648
▁intelligence	-10.6648
▁lollipop	-10.6648
▁str	-10.6648
▁transform	-10.6651
▁inspiration	-10.6654
▁volcano	-10.6654
▁lying	-10.6657
▁neuro	-10.6664
▁increasing	-10.6668
▁program	-10.6668
▁complexity	-10.667
▁imagination	-10.667
▁construct	-10.6679
▁prove	-10.668
▁centuries	-10.6682
▁Work	-10.6682
▁stack	-10.6687
▁ruined	-10.669
▁bubble	-10.6696
▁pointing	-10.6699
▁avocado	-10.6704
▁ticket	-10.6706
▁soldier	-10.6707
ib	-10.6708
rac	-10.671
ered	-10.671
ace	-10.671
top	-10.672
▁shrimp	-10.672
▁trumpet	-10.672
▁Design	-10.6721
ju	-10.6725
Re	-10.6725
▁extend	-10.6726
▁mill	-10.6728
▁flame	-10.6732
▁Che	-10.6734
▁yoga	-10.6737
▁Te	-10.6741
▁insight	-10.6744
▁recognizing	-10.6748
cle	-10.6752
▁conflicts	-10.6755
▁poured	-10.6759
▁television	-10.676
▁pop	-10.6766
▁cushion	-10.6776
▁robust	-10.6776
▁bees	-10.6778
▁burn	-10.6781
stic	-10.6783
▁attach	-10.6786
▁fantastic	-10.6793
▁designs	-10.6794
▁graphic	-10.6795
▁root	-10.6797
▁ink	-10.6803
▁court	-10.6804
▁healing	-10.6813
▁resource	-10.6816
▁courage	-10.6827
▁choice	-10.6832
▁final	-10.6844
▁turkey	-10.6849
▁Life	-10.6853
▁external	-10.6855
▁voices	-10.6865
▁quarrel	-10.6866
▁bio	-10.6868
▁mutual	-10.6872
▁tomato	-10.6872
▁mere	-10.6877
▁curtain	-10.6878
▁resistance	-10.6884
ef	-10.689
▁wheels	-10.6893
▁counting	-10.6893
ev	-10.6897
▁review	-10.6908
▁extraordinary	-10.6911
▁troubled	-10.6914
▁mug	-10.6915
▁pose	-10.6918
▁shield	-10.6923
▁potato	-10.6929
▁underlying	-10.6935
▁twig	-10.694
▁diving	-10.694
▁buttons	-10.694
▁muffin	-10.6946
▁properties	-10.6946
▁trail	-10.6946
▁direct	-10.6947
▁release	-10.695
▁someday	-10.6951
▁embrace	-10.6951
▁hang	-10.6952
fu	-10.6956
▁minimize	-10.6957
▁pinch	-10.696
▁cups	-10.697
▁hook	-10.698
▁citizens	-10.6983
▁align	-10.6987
▁cord	-10.6993
▁Pi	-10.6994
▁helpless	-10.6994
▁mistakes	-10.7
▁matters	-10.7001
▁playground	-10.7003
▁served	-10.7003
▁bags	-10.7005
▁carpet	-10.7009
light	-10.701
▁boats	-10.7016
right	-10.7017
▁gifted	-10.7026
▁scratch	-10.7026
mingly	-10.7029
▁shells	-10.703
chan	-10.704
▁reflection	-10.7041
▁spaghetti	-10.7043
▁violin	-10.7043
▁Meanwhile	-10.7049
▁Col	-10.7051
---------------	-10.7053
ups	-10.7054
av	-10.7062
aging	-10.7062
ame	-10.7064
coming	-10.7067
▁barber	-10.7078
▁festival	-10.7083
▁audiences	-10.7086
▁possibilities	-10.7089
▁opportunity	-10.7095
20	-10.7104
angle	-10.7106
▁sausage	-10.7106
ero	-10.7109
▁chubby	-10.7124
▁page	-10.7128
▁stir	-10.7129
▁cereal	-10.7129
▁regional	-10.7132
▁tear	-10.7134
▁shut	-10.7141
▁Poppy	-10.7141
▁layer	-10.7144
▁perspective	-10.7147
▁anxiety	-10.7147
▁chose	-10.7155
▁barrel	-10.7158
sample	-10.7165
▁install	-10.7169
▁consumer	-10.717
▁inclusive	-10.7176
nic	-10.7182
▁rhythm	-10.7182
▁walks	-10.7184
▁pole	-10.719
▁Ultimately	-10.7193
▁cricket	-10.7193
▁j	-10.7194
▁collar	-10.7205
▁brings	-10.7209
▁observe	-10.721
char	-10.7213
pp	-10.7216
▁mystery	-10.7223
▁expand	-10.7225
amp	-10.7226
▁background	-10.723
▁nicely	-10.7239
▁interpretation	-10.7244
hor	-10.7246
▁freedom	-10.7246
▁bank	-10.7246
▁rag	-10.7247
▁expect	-10.725
▁bandage	-10.7255
emb	-10.7257
▁aeroplane	-10.7258
▁cartoon	-10.7258
▁pat	-10.7263
umb	-10.7265
ley	-10.7273
▁mop	-10.7274
▁sexual	-10.7281
verse	-10.7282
▁investment	-10.7289
▁layers	-10.7289
▁Fe	-10.729
mor	-10.729
▁licked	-10.7293
▁accurate	-10.7294
▁picks	-10.7297
▁OK	-10.7302
▁processing	-10.7305
▁System	-10.7305
▁temple	-10.7305
▁artist	-10.7306
▁deal	-10.7306
▁mild	-10.7311
▁meals	-10.7316
▁Modern	-10.7317
▁carrying	-10.7322
▁prepared	-10.7328
▁reduced	-10.733
▁motion	-10.7331
▁theater	-10.7338
▁document	-10.7346
cultural	-10.7349
▁10:	-10.7351
▁describe	-10.7358
▁bean	-10.7363
▁engineering	-10.7364
▁suggested	-10.7366
▁English	-10.737
ny	-10.7371
▁Such	-10.7372
clus	-10.7373
▁Buzz	-10.7373
▁weapon	-10.7376
2)	-10.7378
▁rode	-10.7384
▁traffic	-10.7394
▁examination	-10.74
▁calling	-10.74
▁motorcycle	-10.74
▁tailored	-10.7406
▁broccoli	-10.7412
▁diary	-10.7426
▁restless	-10.743
▁perhaps	-10.7436
▁tray	-10.7437
▁steam	-10.7442
▁Trans	-10.7444
▁telling	-10.7444
tes	-10.7451
▁host	-10.7454
▁limited	-10.7457
▁grill	-10.746
▁disease	-10.746
1)	-10.7461
▁envious	-10.7466
▁remarkable	-10.7466
▁spoke	-10.7467
▁spinning	-10.7467
air	-10.7471
▁brand	-10.7472
▁Make	-10.7474
▁hotel	-10.7482
▁shelter	-10.7496
▁Rose	-10.7499
▁scooter	-10.7508
Y	-10.7508
▁alter	-10.7511
▁pit	-10.7512
▁exposure	-10.7514
▁convey	-10.7514
▁fingers	-10.7519
au	-10.752
▁contributing	-10.752
▁sustainability	-10.752
▁firework	-10.7522
press	-10.7525
▁force	-10.7528
▁louder	-10.7536
▁sailed	-10.7537
▁computers	-10.7538
▁patch	-10.7545
gl	-10.7548
▁rolling	-10.7549
▁cultivate	-10.7556
world	-10.7556
▁contact	-10.7562
▁wine	-10.7563
▁agreement	-10.757
▁disc	-10.7571
▁cognitive	-10.7574
▁mitten	-10.7574
▁VI	-10.7582
▁mission	-10.7584
▁yell	-10.7587
▁frequently	-10.7589
▁protecting	-10.7591
▁purse	-10.7592
▁college	-10.7598
▁South	-10.7604
▁spun	-10.7612
▁celery	-10.7623
▁dessert	-10.7623
▁lend	-10.7629
▁vision	-10.7631
▁competition	-10.7635
▁pine	-10.7636
▁labor	-10.7638
▁danger	-10.764
all	-10.7641
▁biggest	-10.7641
▁oh	-10.7646
▁Lastly	-10.7647
▁desired	-10.7651
▁magazine	-10.7653
▁mist	-10.766
▁modest	-10.7667
▁laser	-10.7673
hood	-10.7673
▁basketball	-10.7678
▁knight	-10.7684
ai	-10.7687
etic	-10.7695
▁packed	-10.7698
nn	-10.7698
▁symbols	-10.7701
▁efficiency	-10.7702
▁raft	-10.7702
▁mechanisms	-10.7714
▁etc	-10.7726
-1	-10.7726
▁baking	-10.7727
▁custom	-10.7736
▁requirements	-10.774
▁stable	-10.7745
▁preserve	-10.7746
▁direction	-10.7746
▁baseball	-10.7752
place	-10.7754
struct	-10.7755
▁surf	-10.7757
▁rescue	-10.7758
▁Ph	-10.776
▁prune	-10.7764
▁tip	-10.7768
ium	-10.7769
dra	-10.778
▁minds	-10.7781
car	-10.7782
▁Under	-10.7783
▁organization	-10.7788
▁sent	-10.7794
▁anchor	-10.7795
▁requir	-10.7804
▁routine	-10.7807
▁skip	-10.7808
▁major	-10.7813
▁haircut	-10.7813
▁tradition	-10.7816
▁encompass	-10.782
▁giraffe	-10.782
▁Like	-10.7822
▁cauliflower	-10.7826
▁thief	-10.7826
▁symptoms	-10.7826
▁simultaneously	-10.7827
▁skull	-10.7838
▁discovery	-10.7841
▁parade	-10.7846
▁earth	-10.7848
▁adorable	-10.7851
ash	-10.7851
▁conversation	-10.7852
▁regions	-10.7861
▁effort	-10.7871
,”	-10.7871
van	-10.7873
▁bushes	-10.7875
▁son	-10.788
▁wallet	-10.7885
▁gathering	-10.789
▁neat	-10.7895
▁Part	-10.7897
▁Study	-10.7901
")	-10.7902
▁El	-10.7904
?**	-10.7906
▁sport	-10.7907
▁determination	-10.7909
▁vest	-10.791
nal	-10.7917
▁restore	-10.7918
▁impacts	-10.7921
▁Lu	-10.7922
uit	-10.7925
”	-10.7926
▁prompt	-10.7932
▁sweater	-10.7938
▁cases	-10.7939
▁protein	-10.7945
▁flavors	-10.7946
▁landscapes	-10.795
▁Tra	-10.7952
▁Cha	-10.7963
▁regulations	-10.7964
▁earn	-10.7966
▁straight	-10.7976
▁pages	-10.7977
▁elevator	-10.7978
▁Time	-10.7978
▁drawer	-10.7979
▁battery	-10.798
▁purpose	-10.798
▁detail	-10.7987
▁complain	-10.7989
▁uniform	-10.7989
▁Maria	-10.8
▁debates	-10.8004
▁continuous	-10.8008
▁makeup	-10.8013
▁fabric	-10.8014
▁military	-10.8014
▁North	-10.8014
rain	-10.8025
▁holiday	-10.8027
▁Lulu	-10.8027
▁drawings	-10.8031
▁Europe	-10.8036
▁master	-10.8039
▁hockey	-10.8039
▁marry	-10.8039
kin	-10.804
▁matrix	-10.8047
▁flavor	-10.8051
▁happier	-10.8052
▁movies	-10.8056
ural	-10.806
▁golf	-10.8064
▁sneak	-10.8065
▁pill	-10.8067
▁chalk	-10.8071
▁charge	-10.8073
▁missing	-10.8075
▁pressing	-10.8081
▁opening	-10.8082
▁complexities	-10.8082
▁staying	-10.8082
self	-10.8092
▁jewelry	-10.8092
ana	-10.8093
tune	-10.8103
▁tummy	-10.8103
cha	-10.8112
▁sets	-10.8112
▁penguin	-10.8116
▁characteristics	-10.8116
▁leads	-10.8118
▁Pete	-10.8118
()`	-10.8118
Wait	-10.8122
▁ignorant	-10.8129
▁leopard	-10.8129
▁strategic	-10.8129
▁mint	-10.8133
▁update	-10.8138
▁related	-10.8139
▁substance	-10.8142
▁adult	-10.8143
▁learners	-10.8148
▁solution	-10.8157
▁folder	-10.8159
▁hunter	-10.8165
▁barriers	-10.8167
fl	-10.8171
▁AI	-10.8173
▁boot	-10.8173
▁encouraging	-10.8174
▁pony	-10.8175
▁novels	-10.8177
▁repeat	-10.8182
▁cheer	-10.8182
▁factory	-10.8182
▁Mummy	-10.8186
▁discussion	-10.8187
▁device	-10.8188
▁Great	-10.8192
▁players	-10.8192
▁falling	-10.8195
mate	-10.8201
▁Share	-10.8209
▁compassion	-10.8211
▁steak	-10.8212
▁follows	-10.8217
mu	-10.822
▁impatient	-10.8225
atory	-10.8228
▁chemical	-10.8232
▁algorithms	-10.8239
▁Gu	-10.8244
▁sum	-10.8249
▁pastry	-10.8251
▁humanity	-10.8257
over	-10.8262
▁shoulder	-10.8274
▁below	-10.8285
▁caused	-10.8286
gra	-10.829
▁yacht	-10.8297
▁lawyer	-10.8297
▁attempt	-10.8297
▁para	-10.83
oe	-10.8302
▁scholars	-10.8303
▁Current	-10.831
▁Tina	-10.8313
▁Big	-10.8322
▁hate	-10.8327
▁searching	-10.8328
▁circles	-10.8339
▁rubbed	-10.8343
He	-10.8346
▁hanging	-10.8348
▁chosen	-10.8348
▁thousands	-10.8349
▁Ab	-10.8354
▁Give	-10.8356
▁received	-10.8357
yn	-10.8361
Ma	-10.8364
▁imagined	-10.8368
▁lip	-10.837
▁buckle	-10.8375
▁slept	-10.8375
))	-10.8377
reby	-10.8382
▁Tweet	-10.8382
▁arise	-10.8386
▁accident	-10.8394
▁kayak	-10.8395
len	-10.8399
▁placed	-10.8401
solving	-10.8403
▁newspaper	-10.8408
ja	-10.841
▁Did	-10.8413
▁comet	-10.8414
▁Bird	-10.8416
▁adaptation	-10.8417
▁laughter	-10.8418
▁consistent	-10.8425
▁implementing	-10.8428
▁automobile	-10.8428
▁Olive	-10.8429
▁plans	-10.8432
▁fully	-10.8435
▁Out	-10.8445
▁ok	-10.8446
▁pilot	-10.8448
▁flea	-10.8448
▁turning	-10.8449
▁considering	-10.8454
▁Da	-10.8455
ery	-10.8464
▁cities	-10.8466
▁silver	-10.8468
▁neighborhood	-10.8475
▁uncover	-10.8475
▁prefer	-10.8476
▁discipline	-10.8488
▁dancer	-10.8489
▁architecture	-10.8494
▁George	-10.8501
▁circumstances	-10.8501
eration	-10.8501
▁crash	-10.8501
▁standards	-10.8507
▁sneeze	-10.8508
▁skipped	-10.8508
tech	-10.8509
▁implement	-10.8513
▁loudly	-10.8514
▁slip	-10.8516
▁Va	-10.8518
▁obstacles	-10.8521
▁afternoon	-10.8521
▁mosquito	-10.8521
▁poke	-10.8522
▁mixer	-10.8527
▁expressions	-10.8528
▁sailor	-10.853
▁player	-10.8533
▁capital	-10.8534
▁brothers	-10.8538
▁oyster	-10.8541
file	-10.8542
▁Eventually	-10.8548
nny	-10.8548
rg	-10.8549
▁property	-10.8549
▁pray	-10.8552
▁jellyfish	-10.8554
ection	-10.8557
Sue	-10.8558
▁struggles	-10.8558
▁ow	-10.856
▁dictionary	-10.8561
▁six	-10.8563
▁napkin	-10.8568
▁contributions	-10.857
▁wool	-10.8574
▁gym	-10.8575
gent	-10.8577
▁zebra	-10.8581
ffi	-10.8583
point	-10.8588
▁Follow	-10.8595
▁bounced	-10.8601
colonial	-10.8602
wo	-10.8614
▁enrich	-10.8615
position	-10.862
▁precious	-10.8628
▁exercises	-10.8634
▁olive	-10.8635
Bye	-10.8636
▁vendor	-10.8642
▁spear	-10.8656
▁Encourage	-10.8662
▁(1	-10.8663
▁Rob	-10.8678
▁attic	-10.868
▁assessment	-10.8681
af	-10.8684
▁writers	-10.8686
▁alligator	-10.8689
gan	-10.8696
▁accidentally	-10.8696
rc	-10.87
▁integrating	-10.8704
▁intellectual	-10.8709
▁request	-10.8709
▁internal	-10.871
▁featuring	-10.8716
▁chess	-10.8716
▁transition	-10.8717
▁cupboard	-10.8717
▁sizes	-10.872
▁ornament	-10.8723
water	-10.8732
▁unity	-10.8733
▁connecting	-10.8744
▁suffer	-10.8744
▁talent	-10.8745
▁alive	-10.8748
▁shrink	-10.875
▁Susie	-10.875
▁rail	-10.875
▁feedback	-10.8757
▁focusing	-10.876
▁delay	-10.8765
▁wag	-10.8769
▁Toby	-10.8775
ov	-10.8775
▁menu	-10.8778
▁drain	-10.8779
▁machines	-10.878
put	-10.8788
▁reminded	-10.8791
▁Pu	-10.8795
▁octopus	-10.8798
▁medal	-10.8799
▁Social	-10.8805
▁output	-10.881
▁meadow	-10.8812
▁hippo	-10.8812
▁deepen	-10.8814
▁soak	-10.8816
temp	-10.8821
▁Kim	-10.8824
▁calendar	-10.8825
▁female	-10.8825
▁telephone	-10.8825
▁trash	-10.8825
▁wishes	-10.8826
▁serving	-10.8827
dent	-10.8837
▁port	-10.8837
▁ribbon	-10.8839
▁trauma	-10.8839
▁transportation	-10.8841
can	-10.8859
▁utilize	-10.886
rap	-10.8863
▁Birdy	-10.887
▁solving	-10.8873
▁Identify	-10.888
▁Roman	-10.8885
▁text	-10.8889
▁armchair	-10.8894
▁bathtub	-10.8894
▁Plus	-10.8894
ose	-10.8896
▁Where	-10.8904
▁putting	-10.8906
▁wiped	-10.8906
▁investigation	-10.8908
▁instructions	-10.891
▁contexts	-10.8916
▁mode	-10.8916
▁trusted	-10.8917
▁glowing	-10.8919
▁flat	-10.8919
▁critically	-10.8925
tle	-10.8931
Give	-10.8931
▁secrets	-10.8932
pla	-10.8935
50	-10.8935
▁reverse	-10.8939
▁emerge	-10.8948
▁whip	-10.8959
▁includes	-10.8961
▁shocked	-10.8961
▁contrast	-10.8964
▁depict	-10.8964
▁Betty	-10.8971
▁developed	-10.8971
long	-10.8974
▁Embrac	-10.8978
▁disappeared	-10.8981
▁license	-10.8985
▁dataset	-10.8988
room	-10.8994
han	-10.8997
oth	-10.8997
▁raised	-10.9004
▁bonds	-10.9009
▁beef	-10.9011
▁illustrate	-10.9012
▁lotion	-10.9014
app	-10.9014
▁enthusiastic	-10.9015
ality	-10.9022
num	-10.9028
▁axe	-10.9029
▁months	-10.9034
▁sweetie	-10.9037
ung	-10.904
▁exam	-10.9041
view	-10.9043
▁workers	-10.9046
▁ambulance	-10.9048
▁riding	-10.9048
mat	-10.9051
pen	-10.9052
▁screw	-10.9055
▁strategy	-10.9055
▁highlight	-10.9056
ker	-10.9057
▁picking	-10.906
og	-10.906
q	-10.9061
▁precise	-10.9076
▁stability	-10.9076
▁cooler	-10.9076
▁quiz	-10.9078
▁highlighting	-10.908
▁threats	-10.9084
▁microphone	-10.909
▁Bar	-10.91
▁Add	-10.9118
▁anywhere	-10.9132
▁central	-10.9132
▁jokes	-10.9138
▁grapes	-10.9155
▁standard	-10.9156
▁Carl	-10.9157
▁muscles	-10.9159
▁evening	-10.916
▁snap	-10.9168
▁veil	-10.9168
combining	-10.9169
▁Would	-10.9173
▁gorilla	-10.9175
▁transfer	-10.9176
▁bananas	-10.9186
▁caring	-10.9188
▁furniture	-10.9189
▁habitat	-10.9189
▁teachers	-10.9192
rib	-10.9198
▁appearance	-10.9198
▁capacity	-10.9203
▁Paul	-10.9205
lock	-10.9206
▁climbing	-10.9208
nom	-10.9214
ug	-10.9215
▁Am	-10.9215
▁tease	-10.9217
bil	-10.9218
▁dreamed	-10.9218
▁maze	-10.9218
▁Sw	-10.9221
▁youth	-10.9223
▁faucet	-10.9225
▁intriguing	-10.9225
▁Grandpa	-10.9227
▁quit	-10.923
pan	-10.9233
▁knock	-10.9235
▁rep	-10.9239
▁resonate	-10.9239
▁cardboard	-10.924
duct	-10.9243
▁efficiently	-10.9243
▁testing	-10.9246
gin	-10.9249
▁microscope	-10.925
▁nations	-10.9251
▁unpack	-10.9253
15	-10.9264
found	-10.9273
▁shot	-10.9275
▁scar	-10.9276
▁penny	-10.9276
▁lemonade	-10.9276
▁tripped	-10.9276
▁ta	-10.9278
▁Case	-10.928
▁cabinet	-10.9284
▁determine	-10.929
▁observation	-10.9304
▁confidence	-10.9307
▁calls	-10.9318
▁fact	-10.9318
▁focuses	-10.9319
ox	-10.9322
▁cancer	-10.9322
▁random	-10.9322
unch	-10.9323
▁Middle	-10.9333
▁folk	-10.9354
▁strawberry	-10.9354
▁thunder	-10.9354
▁sudden	-10.9358
▁photograph	-10.936
There	-10.9363
12	-10.9366
▁relative	-10.9369
▁contract	-10.9369
▁customers	-10.9378
▁assign	-10.9379
▁periods	-10.9381
▁palace	-10.9383
▁web	-10.9389
▁tornado	-10.9391
▁tightly	-10.9392
▁population	-10.9394
Ow	-10.9402
ably	-10.9403
▁harmony	-10.9405
▁-------------	-10.9406
▁audience	-10.9409
▁efficient	-10.941
Because	-10.9412
▁discrimination	-10.9412
▁Up	-10.9413
▁stairs	-10.9418
▁practitioners	-10.942
▁rubber	-10.9428
▁creations	-10.9436
▁designing	-10.944
▁skeleton	-10.9442
▁Sunny	-10.9442
▁formation	-10.9446
▁intervention	-10.9446
▁inform	-10.9447
▁stakeholders	-10.9449
▁habits	-10.9449
▁leash	-10.9449
▁characterized	-10.9451
▁itch	-10.9451
cer	-10.9452
▁developments	-10.9453
▁hung	-10.9455
test	-10.9456
▁fought	-10.9456
▁buildings	-10.9456
▁Jewish	-10.9464
▁selling	-10.9465
▁participants	-10.9466
▁fashion	-10.9471
▁speaking	-10.9475
▁evolving	-10.948
▁gene	-10.9481
▁Ge	-10.9483
30	-10.95
▁grasp	-10.9515
▁breakfast	-10.9522
▁participate	-10.9522
▁Set	-10.9526
▁immediately	-10.9528
ek	-10.9537
ville	-10.9537
▁otter	-10.9537
▁length	-10.9538
▁breaking	-10.9538
▁Ni	-10.9542
▁thrive	-10.9545
▁missile	-10.9545
▁Data	-10.9546
mission	-10.9551
ched	-10.9554
▁lab	-10.9555
▁King	-10.9556
▁influences	-10.9562
back	-10.9565
▁constitute	-10.9567
▁recognition	-10.9567
ened	-10.957
▁tissue	-10.9574
▁hanger	-10.9576
▁perception	-10.9581
▁strike	-10.9589
▁Development	-10.9589
▁remained	-10.9589
▁En	-10.9589
▁fog	-10.9591
▁applying	-10.9592
▁opera	-10.9592
▁foreign	-10.9596
▁auto	-10.9598
▁settle	-10.96
▁signal	-10.9602
▁qualities	-10.9604
▁soccer	-10.9604
▁passport	-10.9605
▁opt	-10.961
▁customs	-10.9618
▁culinary	-10.9619
col	-10.9619
▁Two	-10.962
▁evolution	-10.9622
▁private	-10.9626
▁harmful	-10.9627
▁leadership	-10.9634
▁suitable	-10.9638
▁equation	-10.9648
▁genetic	-10.9649
▁inspiring	-10.9651
▁Contemporary	-10.9656
▁motivation	-10.9656
▁Other	-10.9658
▁differently	-10.9662
▁sunglasses	-10.9663
▁considered	-10.9668
▁format	-10.9669
▁scene	-10.967
Spot	-10.9671
▁trophy	-10.9671
ranging	-10.9671
▁construction	-10.9673
▁employed	-10.968
data	-10.9681
lf	-10.9686
▁pretending	-10.9692
▁electronic	-10.9695
▁breaks	-10.9696
az	-10.9701
▁hoping	-10.9702
▁Jesus	-10.9708
▁sensor	-10.9708
▁Help	-10.9709
▁micro	-10.9709
▁Em	-10.9721
▁cobweb	-10.9723
▁interaction	-10.9723
▁shaped	-10.9724
▁positively	-10.9741
▁paid	-10.9741
▁disappear	-10.9743
▁grandpa	-10.9745
▁flood	-10.9753
▁doctors	-10.9757
▁conservation	-10.9761
▁crime	-10.9761
▁plt	-10.9762
▁scatter	-10.9766
▁integration	-10.9776
▁mattress	-10.9784
▁monitoring	-10.9786
▁infrastructure	-10.9791
▁capabilities	-10.9791
▁dishwasher	-10.9799
▁Spike	-10.9806
▁attack	-10.9814
▁brighter	-10.9818
▁press	-10.9819
▁scenarios	-10.9823
▁Bessie	-10.9829
▁humor	-10.983
▁subjects	-10.9836
▁9	-10.9836
year	-10.9839
body	-10.9843
▁psychological	-10.9844
▁matches	-10.9848
▁taller	-10.9851
vin	-10.9852
▁answers	-10.9852
▁affected	-10.9852
▁specialized	-10.9856
▁End	-10.9859
▁butterflies	-10.9859
▁violence	-10.9859
▁classic	-10.9867
aving	-10.9871
▁consideration	-10.9872
▁ideal	-10.9874
▁regularly	-10.988
▁belongs	-10.9882
▁rake	-10.9883
▁death	-10.9885
▁proudly	-10.9888
▁Unfortunately	-10.989
lie	-10.9894
▁divide	-10.9898
▁oak	-10.9898
▁Power	-10.9898
▁lack	-10.9901
▁remote	-10.9905
▁composition	-10.9905
▁rush	-10.9911
▁Day	-10.9912
rin	-10.9917
▁Thus	-10.9923
▁peek	-10.9925
edge	-10.9926
▁stretched	-10.9926
▁responses	-10.9937
▁boots	-10.994
ya	-10.9941
▁Dan	-10.9945
▁panda	-10.9947
▁fireplace	-10.9953
▁assist	-10.9958
▁Building	-10.9959
▁blackboard	-10.9961
▁Min	-10.9962
▁Teddy	-10.9967
ement	-10.9969
3)	-10.9971
fully	-10.9972
▁skirt	-10.9974
▁punish	-10.9982
▁Create	-10.9983
▁Plan	-10.9986
▁contributes	-10.9986
▁painter	-10.9992
▁spa	-10.9996
▁governments	-10.9997
▁alarm	-10.9997
▁accordingly	-10.9998
▁attend	-11.0004
▁disorders	-11.0006
▁wipe	-11.0008
▁sir	-11.0014
▁educators	-11.0021
▁warning	-11.0021
Co	-11.0029
▁factor	-11.0031
▁advocate	-11.0036
▁leak	-11.0036
▁French	-11.0044
▁barking	-11.0047
▁Reflect	-11.0052
▁expertise	-11.0052
▁Since	-11.0052
▁performing	-11.0053
pre	-11.0059
ok	-11.0059
▁marginalized	-11.006
▁sandbox	-11.006
▁Human	-11.006
lor	-11.0061
▁regardless	-11.0063
▁Ti	-11.0066
▁cherries	-11.0075
▁visiting	-11.0075
▁marched	-11.0076
dia	-11.0077
▁disrupt	-11.0083
▁relevance	-11.0083
▁status	-11.0091
ori	-11.0091
▁China	-11.0093
▁grand	-11.0093
▁correct	-11.0095
▁excitedly	-11.0112
take	-11.0112
▁presents	-11.0113
Ch	-11.0116
cus	-11.0116
▁interpret	-11.0117
▁mathematical	-11.0122
▁medium	-11.013
▁Bill	-11.0143
▁emphasizing	-11.0145
▁teaspoon	-11.0145
▁Common	-11.0147
▁Pippin	-11.0153
▁Mu	-11.0159
▁inclusivity	-11.0161
▁laundry	-11.0161
▁bustling	-11.0161
▁float	-11.0166
▁tutor	-11.0168
▁procedures	-11.0169
▁juicy	-11.0169
▁backgrounds	-11.0174
▁strict	-11.0193
▁Techniques	-11.0194
▁heavily	-11.02
▁hive	-11.0206
▁fireman	-11.0207
▁bond	-11.0221
▁clients	-11.0221
▁shift	-11.0222
▁diseases	-11.0224
▁accuracy	-11.0224
▁underscore	-11.0224
▁interventions	-11.0227
▁nuanced	-11.024
▁somewhere	-11.024
▁shaking	-11.024
▁ended	-11.0243
▁Cor	-11.0248
ham	-11.0249
▁High	-11.0249
▁airport	-11.025
▁recommend	-11.0252
▁reflecting	-11.026
▁component	-11.026
ax	-11.0261
To	-11.0264
▁YOU	-11.0264
▁Good	-11.0268
▁kangaroo	-11.0272
▁juvenile	-11.0288
lay	-11.0293
▁oats	-11.0294
▁concerning	-11.0298
gram	-11.03
▁mule	-11.03
lation	-11.0302
▁thrilling	-11.0302
▁collecting	-11.0304
▁giggled	-11.0306
▁conventional	-11.0319
▁liquid	-11.0319
▁weep	-11.0321
gon	-11.0321
▁panic	-11.0322
▁reef	-11.0323
▁frameworks	-11.0324
▁combination	-11.0327
vision	-11.0328
but	-11.0334
frac	-11.0335
▁abuse	-11.0337
▁admire	-11.0338
▁Bow	-11.034
▁wardrobe	-11.0343
▁thus	-11.0344
▁handling	-11.0344
▁threat	-11.0349
▁anyway	-11.036
0)	-11.0362
▁marked	-11.0365
▁stickers	-11.0365
▁providers	-11.0374
▁Impact	-11.0375
▁couple	-11.0376
iness	-11.0382
phone	-11.0384
▁diet	-11.0387
▁horses	-11.0387
▁oxygen	-11.0391
▁lean	-11.0406
▁popped	-11.0408
onic	-11.0412
▁evaluate	-11.0416
▁assistance	-11.0417
▁least	-11.0433
▁teams	-11.0444
▁Hu	-11.0446
▁beginning	-11.045
▁limitations	-11.0458
▁advantages	-11.0458
bound	-11.0461
▁libraries	-11.0464
▁slice	-11.0467
▁bathe	-11.047
▁demands	-11.0481
▁introduced	-11.0482
▁invest	-11.0486
▁sandwiches	-11.0487
▁realised	-11.0497
▁mini	-11.0502
▁Develop	-11.0505
▁variables	-11.0505
▁stem	-11.0513
▁pitch	-11.0513
▁apron	-11.0513
▁toilet	-11.0516
▁Greek	-11.0521
▁creek	-11.0521
▁hurry	-11.0521
▁Mike	-11.0522
▁total	-11.0523
▁representing	-11.0523
▁millions	-11.0525
▁dealing	-11.0526
▁Everywhere	-11.0529
▁pistol	-11.0529
care	-11.053
▁sessions	-11.053
▁illustr	-11.0531
read	-11.0533
▁heroes	-11.0536
cra	-11.0537
▁superhero	-11.054
▁comprehensive	-11.0545
▁preparing	-11.0545
▁severe	-11.0545
▁inner	-11.0546
*:	-11.0546
▁Africa	-11.0547
▁squeeze	-11.0549
▁Chinese	-11.0554
▁Management	-11.0554
▁spending	-11.0555
▁pressed	-11.0557
▁initially	-11.0559
hop	-11.0563
por	-11.0564
▁directly	-11.057
▁beneath	-11.057
▁Lee	-11.0571
▁member	-11.0584
ional	-11.059
▁battle	-11.0594
▁gasped	-11.0595
▁spilled	-11.0597
▁actual	-11.0603
▁shower	-11.0606
▁desire	-11.0614
▁artificial	-11.0619
▁reindeer	-11.0619
▁James	-11.0619
▁indicate	-11.062
▁artwork	-11.0622
▁Choose	-11.0627
▁(19	-11.0629
bal	-11.0633
▁harness	-11.0636
▁Take	-11.0637
▁reminder	-11.0639
▁lightning	-11.0642
▁minimizing	-11.0644
▁zipper	-11.0645
▁mummy	-11.0646
▁Native	-11.0648
▁eco	-11.0649
▁genuine	-11.0652
▁vacation	-11.0652
▁slightly	-11.066
▁sought	-11.066
▁poetry	-11.0668
▁transcend	-11.0677
eat	-11.0682
▁sparkly	-11.0683
▁centered	-11.0687
▁hunt	-11.0688
▁admired	-11.069
▁fisherman	-11.0702
▁stared	-11.0703
▁lid	-11.071
exp	-11.0711
▁experts	-11.0712
▁freezer	-11.0714
▁linguistic	-11.0718
▁sensitive	-11.0718
ban	-11.0722
tail	-11.0724
▁ashtray	-11.0735
▁igloo	-11.0743
▁leaned	-11.0754
lam	-11.0755
▁roared	-11.0762
▁collaborative	-11.0768
▁hedge	-11.0769
▁tub	-11.0774
▁discourse	-11.0776
▁destroy	-11.0783
▁fastest	-11.0793
▁prominent	-11.0793
▁fixing	-11.0794
jo	-11.0802
▁legacy	-11.0802
▁Green	-11.081
▁permit	-11.0828
▁select	-11.0834
▁drug	-11.0835
▁authentic	-11.0842
▁algorithm	-11.0843
▁Trends	-11.0843
▁shampoo	-11.0843
▁History	-11.0849
▁statement	-11.085
▁recipes	-11.085
▁Always	-11.0852
▁Dolly	-11.0857
They	-11.0858
play	-11.086
▁engaged	-11.086
▁degree	-11.0861
▁School	-11.0863
ix	-11.0865
shape	-11.0871
▁pastel	-11.0872
▁containing	-11.0873
teen	-11.0874
▁blouse	-11.0877
▁chimney	-11.0877
▁solely	-11.0878
▁subway	-11.0879
▁rapidly	-11.088
▁Education	-11.088
ney	-11.0882
harm	-11.0893
▁speech	-11.0894
▁programming	-11.0894
▁thumb	-11.0894
▁returns	-11.0896
▁interconnected	-11.0898
▁investigate	-11.0903
▁privacy	-11.0903
▁consult	-11.0911
▁teachings	-11.0912
itive	-11.0912
▁showcase	-11.0912
quality	-11.0915
▁constant	-11.0917
▁native	-11.0921
▁Dave	-11.0922
▁treatments	-11.0928
▁mustache	-11.093
part	-11.0933
▁causes	-11.0933
count	-11.0941
▁LGBT	-11.0945
▁mass	-11.0946
▁hut	-11.0946
hr	-11.095
▁beans	-11.095
load	-11.0951
▁marriage	-11.0953
▁perfume	-11.0953
▁stitch	-11.0953
And	-11.0953
▁leverag	-11.0953
▁belief	-11.0963
curr	-11.0976
▁par	-11.0977
▁Western	-11.0979
▁phenomena	-11.0987
ologist	-11.0989
▁whisper	-11.0995
▁comprehension	-11.0996
▁####	-11.0996
▁identifying	-11.1
▁weeks	-11.1002
rad	-11.1008
▁rate	-11.1011
▁smoothly	-11.1013
▁confront	-11.1013
▁compelling	-11.1022
off	-11.1023
▁approached	-11.1031
bby	-11.104
▁razor	-11.1047
▁lumber	-11.1047
▁reasons	-11.1055
▁Flo	-11.1055
vol	-11.1062
ato	-11.1064
▁Right	-11.1065
▁shiver	-11.1066
▁applied	-11.1073
oid	-11.1077
▁discoveries	-11.1078
▁Black	-11.109
▁British	-11.109
▁consumption	-11.109
▁junk	-11.109
iz	-11.1091
▁realize	-11.1094
▁rhinoceros	-11.1099
▁National	-11.1099
▁bend	-11.1109
har	-11.111
▁depth	-11.1115
▁Cultural	-11.1116
▁witness	-11.1125
▁sunlight	-11.1132
nate	-11.1132
▁pedal	-11.1134
▁golden	-11.1137
erial	-11.1137
▁minute	-11.1138
▁tug	-11.1143
▁Fox	-11.1144
▁refused	-11.1147
▁functional	-11.1151
▁---	-11.1154
▁herbs	-11.1155
▁tale	-11.1159
▁discovering	-11.116
▁Care	-11.1166
▁records	-11.1169
itude	-11.1169
▁Water	-11.1171
▁planned	-11.1171
▁Navigat	-11.1177
▁internet	-11.1177
▁Select	-11.1178
▁websites	-11.1181
▁spoil	-11.1185
norm	-11.1185
5)	-11.1188
▁equitable	-11.1194
▁zero	-11.1194
▁leader	-11.1202
▁infant	-11.1203
ou	-11.1204
▁softly	-11.1206
tory	-11.121
▁tuna	-11.1214
▁strive	-11.1223
▁musical	-11.1224
resulting	-11.1233
▁crafting	-11.1234
▁porch	-11.1238
▁Recent	-11.1242
lap	-11.1242
▁achieving	-11.1247
▁encouraged	-11.1251
▁valley	-11.1255
▁Write	-11.1257
▁Sea	-11.1259
▁bathrobe	-11.1264
▁categories	-11.1264
▁sunset	-11.1265
▁rapid	-11.1279
▁delight	-11.1281
▁comprehend	-11.129
▁philosophy	-11.1299
▁medication	-11.1299
▁rigorous	-11.1308
▁miles	-11.1312
▁chamber	-11.1317
▁Sho	-11.1317
ache	-11.1323
▁official	-11.1326
▁Sharing	-11.1326
▁bookcase	-11.1335
▁located	-11.1338
▁dreaming	-11.1342
▁presented	-11.1342
hal	-11.1348
▁university	-11.1352
▁Indian	-11.1361
Dad	-11.1362
▁cabin	-11.1367
▁bury	-11.137
4)	-11.1373
▁third	-11.1379
▁Jazz	-11.1388
ram	-11.1394
▁dedication	-11.1397
▁sibling	-11.1405
▁Christianity	-11.1409
▁crib	-11.1411
▁schedule	-11.1414
▁steel	-11.1414
-----------	-11.142
▁Learning	-11.1421
▁organizing	-11.1424
▁resolution	-11.1424
▁gap	-11.1427
Sh	-11.1431
pping	-11.1433
▁massage	-11.1433
boo	-11.144
hoo	-11.1446
▁bent	-11.1447
▁cuisine	-11.145
▁knob	-11.145
hen	-11.1456
▁selecting	-11.1458
▁customer	-11.1463
▁firm	-11.1466
head	-11.1467
Did	-11.1468
▁domain	-11.1468
Comp	-11.1482
▁mood	-11.1487
▁married	-11.1495
▁equality	-11.1499
ino	-11.1513
▁Mandy	-11.1514
▁purposes	-11.1516
▁usage	-11.1518
▁Focus	-11.1522
▁industries	-11.1522
▁nutrition	-11.1522
▁billboard	-11.1531
▁respective	-11.1531
▁Whether	-11.154
▁meditation	-11.154
▁reinforce	-11.154
lon	-11.1542
▁approximately	-11.1549
▁harbor	-11.1549
▁colon	-11.1549
▁campaign	-11.1558
▁tapestry	-11.1558
▁racial	-11.1567
▁sounded	-11.1567
▁implementation	-11.1569
▁bringing	-11.1571
je	-11.1574
▁mall	-11.1575
▁storage	-11.1576
▁Johnny	-11.1579
▁brightly	-11.1579
▁Students	-11.1585
▁Canada	-11.1585
spiring	-11.1586
▁mid	-11.1586
▁swamp	-11.1587
▁lick	-11.1588
▁script	-11.1589
bel	-11.1589
ographic	-11.159
▁Law	-11.159
▁ceiling	-11.1594
▁niche	-11.1594
▁completely	-11.1595
▁atmosphere	-11.1603
▁prayer	-11.1604
▁cast	-11.1608
▁Tri	-11.1613
▁Applications	-11.1614
▁Latin	-11.1615
▁edit	-11.1618
▁awesome	-11.1621
▁preparation	-11.1621
▁refrigerator	-11.1621
▁successfully	-11.1621
serve	-11.1627
▁influenc	-11.1627
▁racing	-11.1631
▁stirred	-11.1649
▁innovations	-11.1653
▁socio	-11.1655
▁Future	-11.1667
▁assess	-11.1668
pose	-11.1668
▁sales	-11.167
▁attribut	-11.1676
▁cliff	-11.1676
value	-11.1677
▁Buzzy	-11.1681
power	-11.1685
▁highlights	-11.1685
▁chef	-11.1685
▁container	-11.1687
▁reaching	-11.1687
Ha	-11.1692
▁Analysis	-11.1694
late	-11.1698
▁scenes	-11.1704
▁peeked	-11.1707
▁facts	-11.171
▁balanced	-11.1712
▁wondering	-11.1714
▁addition	-11.1717
▁resid	-11.1717
▁recognized	-11.1728
▁beloved	-11.1731
▁enhanced	-11.1731
▁stomach	-11.174
▁subsequent	-11.174
▁Pandy	-11.174
▁complicated	-11.1744
▁fail	-11.1749
Ouch	-11.1749
▁sentence	-11.1751
Boo	-11.1756
craft	-11.1758
▁marvel	-11.1758
▁trigger	-11.1758
ital	-11.1769
▁rushed	-11.1771
▁bookshelf	-11.1777
▁choosing	-11.1777
▁disorder	-11.1785
▁perfectly	-11.1786
▁outdoor	-11.1786
▁entities	-11.1786
▁sofa	-11.1792
▁element	-11.1794
▁engineers	-11.1795
▁clothing	-11.1797
▁ignore	-11.1801
train	-11.1817
▁excellent	-11.1823
▁Fiction	-11.1832
▁email	-11.1832
▁safer	-11.1834
how	-11.1842
▁lung	-11.1842
cap	-11.1851
raising	-11.1853
▁US	-11.1854
▁height	-11.1855
▁ranch	-11.1856
▁May	-11.1857
▁previous	-11.1858
▁Being	-11.1859
ulate	-11.186
▁enduring	-11.186
np	-11.1863
vor	-11.1865
za	-11.1866
▁unite	-11.1867
▁presence	-11.187
▁Challenges	-11.187
pel	-11.1874
ama	-11.1878
▁adversity	-11.1879
▁sequence	-11.1879
▁overcome	-11.1879
▁objectives	-11.1879
well	-11.1884
▁selection	-11.1888
▁Get	-11.189
▁swinging	-11.1894
▁experiencing	-11.1898
▁thermometer	-11.1898
▁guest	-11.1898
▁vs	-11.1898
▁demonstrated	-11.1899
▁Du	-11.1907
▁instruments	-11.1907
▁mastering	-11.1909
▁copper	-11.1909
▁bump	-11.191
▁detect	-11.1912
▁blueberries	-11.1916
▁India	-11.1917
▁Bee	-11.1922
Con	-11.1922
▁bas	-11.1924
▁considerations	-11.1926
▁Discuss	-11.1935
▁hurricane	-11.1935
▁insurance	-11.1935
▁oasis	-11.1935
▁Ellie	-11.1935
▁convert	-11.1936
▁tips	-11.1937
▁soldiers	-11.1938
defined	-11.1939
name	-11.1941
xi	-11.1942
▁athlete	-11.1944
▁twirl	-11.1954
▁numpy	-11.1954
▁muscle	-11.1956
hold	-11.1957
▁winning	-11.1958
▁cultivating	-11.1963
▁income	-11.1967
▁extreme	-11.1973
▁tax	-11.1977
▁surrender	-11.1982
▁volunteer	-11.1982
▁jazz	-11.1982
▁Role	-11.1986
▁entered	-11.199
▁shopping	-11.1996
poli	-11.1998
▁poked	-11.2001
▁excessive	-11.2002
media	-11.2004
▁ecosystems	-11.2006
▁grape	-11.2017
eu	-11.2019
▁supplies	-11.2029
▁buzz	-11.2029
▁documents	-11.2029
▁trace	-11.2031
▁luck	-11.2031
▁participation	-11.2039
)**	-11.2042
("	-11.2046
▁flexibility	-11.2048
▁Context	-11.2049
▁framework	-11.2053
▁governing	-11.2056
▁filter	-11.2058
▁warmth	-11.2058
▁chat	-11.206
▁organ	-11.2065
path	-11.2067
Mo	-11.2072
▁advances	-11.2076
▁origin	-11.2086
▁swung	-11.2096
▁Nu	-11.2105
conscious	-11.2105
▁shifts	-11.212
▁sew	-11.2123
▁safeguard	-11.2124
▁fluid	-11.2126
▁refine	-11.2126
▁pleased	-11.213
gal	-11.2143
▁expected	-11.2144
▁recently	-11.2147
▁interested	-11.2152
troducing	-11.2153
▁route	-11.2163
▁opinions	-11.2165
▁Freddy	-11.2165
▁stadium	-11.2172
▁throwing	-11.2174
metric	-11.2181
-19	-11.2181
▁jail	-11.2182
▁eagerly	-11.2183
▁flu	-11.2186
▁stereotypes	-11.2191
▁optimize	-11.2191
▁breathe	-11.2199
▁vector	-11.2201
▁evolved	-11.2202
▁frown	-11.2202
▁arguments	-11.2207
▁parallel	-11.2211
▁veterinarian	-11.2211
▁chasing	-11.2211
▁attached	-11.2213
ogen	-11.2215
Gra	-11.2226
▁male	-11.2229
▁shovel	-11.223
▁Guide	-11.224
Your	-11.2244
▁beep	-11.2255
▁differ	-11.2256
▁stunning	-11.2259
▁Henry	-11.2259
▁forming	-11.226
▁--	-11.2267
ST	-11.2267
▁equip	-11.2286
▁demonstrating	-11.2288
▁honor	-11.2288
▁belonging	-11.229
cen	-11.2291
▁Science	-11.2298
▁exclaimed	-11.2298
▁cherry	-11.2308
▁birdcage	-11.2308
▁observed	-11.231
▁Charlie	-11.2317
▁discussed	-11.2325
▁celebration	-11.2327
▁origins	-11.2332
▁mat	-11.2333
mag	-11.2334
ough	-11.2345
▁Cho	-11.235
▁Maya	-11.2354
scale	-11.2361
▁Stay	-11.2361
▁confident	-11.2365
▁traits	-11.2366
▁Grace	-11.2367
▁actively	-11.237
▁acknowledging	-11.2376
▁warned	-11.2377
▁hearing	-11.2393
▁necessitate	-11.2393
▁maintenance	-11.2396
▁attitudes	-11.2405
▁struggling	-11.2405
▁crowd	-11.2405
▁particles	-11.2405
▁equipped	-11.2406
▁freeze	-11.2413
▁frowned	-11.2414
▁substantial	-11.2415
▁tackle	-11.2415
▁signals	-11.2416
▁laid	-11.242
▁concern	-11.2423
▁leather	-11.2425
▁mysteries	-11.2425
varying	-11.2431
▁giggle	-11.2432
▁governance	-11.2435
▁mindfulness	-11.2436
grad	-11.2436
▁##	-11.2445
▁East	-11.2446
▁whereas	-11.2446
rie	-11.2453
▁Kiki	-11.2455
logical	-11.2464
▁summary	-11.2464
▁healthier	-11.2468
▁Traditional	-11.2471
▁pursuit	-11.2474
▁rooted	-11.2477
ole	-11.2479
▁lawn	-11.2484
▁ostrich	-11.2484
▁classes	-11.2485
▁handed	-11.2487
▁revealed	-11.2495
▁curl	-11.2502
▁lasting	-11.2506
lk	-11.2512
▁sold	-11.2518
▁endless	-11.2519
▁adequate	-11.2524
▁destination	-11.2524
acy	-11.2526
▁acting	-11.2529
▁Tips	-11.2533
▁integrity	-11.2534
Ready	-11.2544
▁dimensions	-11.2561
▁worse	-11.2564
logy	-11.2565
▁operate	-11.2571
▁observing	-11.2574
step	-11.2579
▁monitor	-11.2581
▁Type	-11.2584
▁evaluation	-11.2594
:*	-11.2599
▁earthquake	-11.2604
▁attract	-11.2606
▁existence	-11.2606
nie	-11.261
▁favor	-11.2613
▁minor	-11.2614
▁Does	-11.2618
▁transport	-11.2622
▁accessibility	-11.2625
▁poly	-11.2631
friendly	-11.2632
▁kingdom	-11.2634
▁measuring	-11.2644
▁promising	-11.2644
thank	-11.2648
script	-11.2656
▁permission	-11.2665
▁mixing	-11.2668
▁thorough	-11.2673
ibility	-11.2674
▁none	-11.2675
bra	-11.2679
▁wildlife	-11.2686
war	-11.2689
▁Music	-11.2691
$$	-11.2693
▁accurately	-11.2693
▁balancing	-11.2694
▁Second	-11.2705
▁formed	-11.2707
ica	-11.2707
▁blinked	-11.2709
▁disaster	-11.2715
▁venture	-11.2715
free	-11.2723
▁Effective	-11.2735
▁therapeutic	-11.2735
▁Harry	-11.2738
▁included	-11.2741
▁Fu	-11.2745
▁palm	-11.2745
Listen	-11.2747
pho	-11.2753
▁mixture	-11.2757
▁recovery	-11.276
▁zoomed	-11.2765
▁partnerships	-11.2766
▁loose	-11.2766
▁phase	-11.2776
▁histories	-11.2776
terior	-11.2779
▁influential	-11.2786
▁sites	-11.279
not	-11.2792
▁parameters	-11.2794
▁surrounded	-11.2806
▁interview	-11.2807
▁linear	-11.2818
eng	-11.2827
▁Lola	-11.283
▁Binky	-11.2837
illa	-11.2839
▁celebrated	-11.2845
▁pride	-11.2858
▁theories	-11.2859
▁Smith	-11.2868
100	-11.2869
wer	-11.2878
▁dried	-11.2878
▁Examin	-11.2878
▁sector	-11.2879
▁lifestyle	-11.288
▁expose	-11.288
▁Shi	-11.2884
max	-11.2886
bin	-11.2888
▁computing	-11.2889
▁intricacies	-11.2889
▁slippery	-11.2889
▁Applying	-11.2889
vation	-11.2892
▁bill	-11.2893
▁collected	-11.2894
▁bra	-11.2905
▁accessible	-11.2911
Based	-11.2924
▁sticky	-11.2929
responsibilities	-11.294
▁theoretical	-11.294
▁vet	-11.296
▁targeted	-11.2966
▁Strategies	-11.2971
▁adaptability	-11.2972
▁subject	-11.2973
▁grapple	-11.2982
▁accepted	-11.2987
iff	-11.2989
▁drawn	-11.2989
▁regret	-11.2992
▁divine	-11.2992
▁emergency	-11.2992
▁Unlike	-11.2993
state	-11.2993
▁reaches	-11.2994
▁measurement	-11.3001
▁Language	-11.3013
▁curve	-11.3013
▁born	-11.3015
▁carbon	-11.3022
▁officer	-11.3023
▁Implement	-11.3024
migr	-11.3024
▁Specifically	-11.3045
▁employees	-11.3049
9)	-11.305
title	-11.3051
▁eight	-11.3053
▁relie	-11.3054
▁immense	-11.3055
article	-11.3065
▁manifest	-11.3065
▁sunrise	-11.3066
▁sticker	-11.3075
▁technical	-11.3076
▁Change	-11.3076
▁variations	-11.3078
▁Opt	-11.3083
▁Age	-11.3084
▁otherwise	-11.3096
▁deserve	-11.3099
▁wooden	-11.3102
▁formal	-11.3107
▁minimal	-11.3108
▁favourite	-11.3118
▁luggage	-11.3118
▁Star	-11.3127
▁Ve	-11.3127
▁determin	-11.3129
▁shone	-11.3139
axis	-11.314
▁colour	-11.316
▁disparities	-11.316
▁Play	-11.3163
rv	-11.3164
▁presentation	-11.3168
▁Connection	-11.3171
stance	-11.3175
▁clinical	-11.3177
▁cooperation	-11.3182
▁biases	-11.3186
cult	-11.3189
bro	-11.3189
▁poison	-11.3192
meter	-11.3194
▁channels	-11.3197
▁drinking	-11.3201
nch	-11.3205
▁Start	-11.3206
▁revealing	-11.3207
ette	-11.3211
yl	-11.3212
▁visited	-11.3223
▁click	-11.3224
▁delighted	-11.3225
11	-11.3226
▁raw	-11.3227
▁Establish	-11.3235
▁combined	-11.3239
type	-11.3241
coordinate	-11.3246
▁dispute	-11.3256
▁City	-11.3263
▁subtle	-11.3268
▁wealth	-11.3268
▁relations	-11.3274
▁finance	-11.3278
AD	-11.3284
De	-11.3286
▁birth	-11.3288
stone	-11.3298
▁Therefore	-11.3299
▁compete	-11.33
▁preventing	-11.3301
▁ethnic	-11.331
▁independence	-11.3318
▁Food	-11.3321
▁reactions	-11.3321
gave	-11.3322
▁celebrating	-11.3331
space	-11.3338
▁mentor	-11.3338
▁expanding	-11.3338
▁Finn	-11.334
10	-11.334
▁chirp	-11.3342
▁relate	-11.3343
▁trial	-11.3347
▁general	-11.3353
▁globe	-11.3364
▁pivotal	-11.3364
▁psychology	-11.3364
▁backpack	-11.3364
▁reference	-11.3369
▁Ted	-11.3369
▁credit	-11.3375
▁essence	-11.3375
lined	-11.3378
uction	-11.3382
▁influenced	-11.3382
atic	-11.3383
▁potatoes	-11.3385
▁colourful	-11.3386
▁avoiding	-11.3388
▁acid	-11.3395
One	-11.3395
▁properly	-11.3399
hose	-11.3404
▁dare	-11.3405
udi	-11.3406
▁199	-11.3406
▁Ki	-11.3415
▁marketing	-11.3416
▁although	-11.3418
▁grocery	-11.3418
▁berry	-11.3429
▁tomatoes	-11.344
▁survival	-11.344
▁contributed	-11.3442
▁generation	-11.3451
AR	-11.3458
▁facilitat	-11.3459
▁instrument	-11.3462
▁Support	-11.3462
▁protagonist	-11.3462
▁Lilly	-11.3463
vert	-11.3466
▁tide	-11.3475
▁NumPy	-11.3484
EM	-11.3486
▁Owl	-11.3506
▁narrative	-11.3506
▁endeavor	-11.3516
▁losing	-11.3517
mpl	-11.352
▁flies	-11.352
flow	-11.3521
▁designers	-11.3521
sexual	-11.3526
▁Speedy	-11.3527
▁younger	-11.3535
▁filling	-11.3536
ENCE	-11.3538
▁Studies	-11.3538
▁budget	-11.3538
▁neural	-11.3549
▁platform	-11.3551
▁Personal	-11.3557
▁York	-11.3572
▁underground	-11.3572
▁pushes	-11.3574
▁Yet	-11.3575
SA	-11.3576
▁romance	-11.3583
▁spade	-11.3585
itch	-11.3587
▁nobody	-11.359
Anna	-11.3591
▁shivering	-11.3592
▁studied	-11.3616
▁lecture	-11.3616
ko	-11.3616
▁copy	-11.3616
▁sniffed	-11.3618
vy	-11.3619
known	-11.3624
▁economy	-11.3627
▁Self	-11.3628
▁Engage	-11.3638
▁absorb	-11.3638
------------	-11.3646
▁applaud	-11.3649
▁assumptions	-11.3649
▁clues	-11.3649
▁entertainment	-11.3651
▁fulfill	-11.366
▁command	-11.366
▁invitation	-11.3671
Watch	-11.3676
ani	-11.3677
▁paying	-11.3678
▁estimate	-11.3683
▁gradually	-11.3683
▁seven	-11.3687
▁explaining	-11.3689
▁Approach	-11.3694
▁advocating	-11.3694
▁navy	-11.3694
▁enthusiasts	-11.3695
▁Whenever	-11.3698
Yay	-11.3698
ball	-11.3704
▁SIL	-11.3705
▁mathematics	-11.3716
▁crossed	-11.3716
▁photography	-11.372
▁shock	-11.372
ipped	-11.3726
▁Bubbles	-11.3727
▁contest	-11.3729
osis	-11.3741
Le	-11.3749
▁integral	-11.375
▁indeed	-11.3751
▁Frank	-11.3757
▁washing	-11.376
ong	-11.3765
▁Vo	-11.3772
▁hobbies	-11.3772
▁participating	-11.3772
▁proceed	-11.3772
bri	-11.3772
drop	-11.3775
▁breathing	-11.3775
Yuck	-11.3776
▁apologize	-11.3784
▁definition	-11.3784
▁combat	-11.3784
oomy	-11.3787
bell	-11.3794
ouch	-11.3797
pur	-11.38
▁clearly	-11.3805
▁Dog	-11.3806
▁bolster	-11.3806
▁intersection	-11.3815
▁sneezed	-11.3817
▁Model	-11.3818
arian	-11.3819
▁Asian	-11.3827
▁floating	-11.3831
▁flash	-11.3842
▁beat	-11.3844
▁visitors	-11.3845
▁suffering	-11.385
▁entirely	-11.3859
▁Sophie	-11.3863
such	-11.3867
▁correctly	-11.3868
▁traveling	-11.3871
▁remaining	-11.3883
bon	-11.3887
▁clapping	-11.3888
plot	-11.3888
▁failure	-11.3898
▁Arm	-11.3904
▁equity	-11.3908
▁expense	-11.3908
▁tremble	-11.3908
▁inequality	-11.3909
▁opinion	-11.3917
▁shall	-11.392
▁chronic	-11.392
▁criminal	-11.3931
▁authority	-11.3935
▁alien	-11.3936
grade	-11.3937
▁ecological	-11.3943
MS	-11.3947
sign	-11.3948
▁passage	-11.3948
book	-11.3951
PS	-11.3953
▁Central	-11.3966
▁unhappy	-11.3966
▁migration	-11.3966
▁accountability	-11.3968
▁stock	-11.3968
rum	-11.3968
▁scattered	-11.397
▁Try	-11.3972
zo	-11.3975
▁transparency	-11.3977
▁reform	-11.398
▁encountered	-11.398
array	-11.3987
▁geographical	-11.3989
▁widespread	-11.3989
▁wreck	-11.3989
▁thrill	-11.399
▁transformed	-11.3992
▁vegetable	-11.3999
▁collaborate	-11.4
▁Though	-11.4001
▁acceptance	-11.4002
▁Ver	-11.4009
Mia	-11.4018
▁Coco	-11.4018
▁sandcastle	-11.4023
▁incident	-11.4023
▁Char	-11.4035
▁Place	-11.4035
▁bacteria	-11.4035
▁supportive	-11.404
▁Pop	-11.4045
▁variable	-11.4046
CA	-11.4046
▁scoop	-11.4046
hand	-11.4054
▁compare	-11.4057
▁buried	-11.4058
▁injuries	-11.4058
▁policymakers	-11.4058
▁consistency	-11.4059
▁sparkled	-11.4061
▁depression	-11.407
▁Early	-11.407
▁fiber	-11.407
▁popularity	-11.4072
related	-11.4076
▁More	-11.408
▁satisfaction	-11.4081
▁sophisticated	-11.4081
▁operating	-11.4084
▁quietly	-11.4095
ecu	-11.4096
▁Asia	-11.4097
▁Uncle	-11.4105
▁delivery	-11.4108
ini	-11.4111
25	-11.4113
▁plenty	-11.4116
▁cash	-11.4131
lip	-11.4131
text	-11.4134
▁Space	-11.4142
chu	-11.4148
▁universal	-11.4151
▁shouldn	-11.4156
AT	-11.4158
▁Fun	-11.4163
▁eaten	-11.4164
▁passing	-11.4172
▁afford	-11.4173
▁struck	-11.4175
▁Baby	-11.4176
ula	-11.4184
▁David	-11.4186
▁recipe	-11.4188
▁showcas	-11.4197
▁Sun	-11.4199
▁constraints	-11.421
▁classmates	-11.421
▁volume	-11.4222
▁assert	-11.4224
▁previously	-11.4224
▁flap	-11.4229
▁welcomed	-11.4233
▁expressing	-11.4233
▁Japanese	-11.4233
▁agriculture	-11.4233
▁derived	-11.4233
▁tongue	-11.4234
▁payment	-11.4234
▁guy	-11.4234
▁Within	-11.4235
dimensional	-11.4237
emp	-11.4253
zi	-11.4256
strat	-11.4265
▁urge	-11.4266
▁coach	-11.4269
list	-11.428
▁Culture	-11.4281
▁greedy	-11.4281
▁pollution	-11.4282
stand	-11.4282
▁Clara	-11.4293
▁argument	-11.4297
you	-11.43
▁Joey	-11.4302
▁explorers	-11.4309
▁sprayed	-11.4314
▁strawberries	-11.4316
▁productivity	-11.4317
▁Annie	-11.4322
▁site	-11.4326
▁cheek	-11.4328
▁groundbreaking	-11.4328
▁checked	-11.4335
▁ruler	-11.4339
▁guiding	-11.434
▁nightmare	-11.434
ologies	-11.4344
▁echo	-11.435
▁sigh	-11.4358
ancy	-11.4375
▁abstract	-11.4376
▁regulatory	-11.4376
▁intense	-11.4376
ella	-11.4377
▁difficulties	-11.4384
▁Islamic	-11.439
▁teaches	-11.4391
▁decrease	-11.44
▁Treat	-11.44
Section	-11.4403
▁epi	-11.442
▁Sal	-11.442
▁emotion	-11.4425
▁option	-11.4436
▁judgment	-11.4436
▁struggled	-11.4443
▁flip	-11.4444
▁inviting	-11.4448
▁Learn	-11.4451
▁imagery	-11.4454
▁criticism	-11.4462
▁detective	-11.4462
▁repeated	-11.447
▁evolve	-11.4471
▁commercial	-11.4472
▁Creating	-11.4472
▁meowed	-11.4472
▁transformative	-11.4474
▁establishing	-11.4474
▁effect	-11.4478
▁Wo	-11.449
▁personality	-11.4491
▁acknowledge	-11.4496
▁multifaceted	-11.4496
▁Begin	-11.4498
▁yawn	-11.4503
▁entrepreneur	-11.4508
▁obtain	-11.4521
print	-11.4523
▁Mix	-11.4529
▁nurturing	-11.4533
▁transaction	-11.4533
bur	-11.4542
▁baked	-11.4542
▁squeezed	-11.4552
▁await	-11.4557
▁digging	-11.4559
▁defend	-11.4566
▁arrive	-11.4569
▁sweetheart	-11.4569
40	-11.4576
▁instruction	-11.458
▁cuddle	-11.4582
▁loving	-11.4582
▁fairness	-11.4594
▁Open	-11.4595
▁Pip	-11.4599
▁Spanish	-11.4606
▁Overview	-11.4607
MA	-11.4609
Yum	-11.4609
▁effectiveness	-11.4613
▁Cap	-11.4615
rect	-11.4619
▁Post	-11.462
▁surge	-11.4629
▁holistic	-11.4631
▁perseverance	-11.4631
▁orientation	-11.4643
▁teamwork	-11.4645
▁Tu	-11.4647
▁organic	-11.4648
▁widely	-11.4648
▁electrical	-11.4655
▁linked	-11.4655
uce	-11.4665
▁Thomas	-11.4668
▁Often	-11.4668
▁Love	-11.4677
▁safari	-11.468
▁insisted	-11.468
▁flapped	-11.468
looking	-11.4683
▁ignored	-11.4685
▁France	-11.4694
▁consistently	-11.4701
lex	-11.4701
vic	-11.4703
▁England	-11.4705
▁Hoppy	-11.4705
▁attending	-11.4708
▁slap	-11.4709
▁impressed	-11.4717
▁iconic	-11.4719
▁ski	-11.4725
esthetic	-11.4725
▁Sub	-11.4727
▁Digital	-11.4729
▁phrase	-11.4729
▁Process	-11.4729
▁actors	-11.4736
▁vary	-11.4739
----------	-11.4746
phi	-11.4755
Ca	-11.4756
▁distress	-11.4767
▁biological	-11.4768
▁valued	-11.4768
face	-11.477
▁silence	-11.4779
▁zone	-11.4779
▁ruin	-11.4786
21	-11.4788
▁chores	-11.4792
▁visually	-11.4792
Welcome	-11.4797
▁acquire	-11.4804
▁sca	-11.4808
▁manager	-11.4816
▁Lucky	-11.4817
parent	-11.4823
key	-11.4824
▁Addressing	-11.4829
▁electricity	-11.4829
▁hundred	-11.4829
▁brief	-11.4829
▁formula	-11.4837
▁Proper	-11.4846
▁Book	-11.4848
▁Dia	-11.4848
▁paramount	-11.4854
▁nutrients	-11.4856
▁structural	-11.4867
▁decades	-11.4867
▁Long	-11.4869
▁reduction	-11.4875
morph	-11.488
▁represented	-11.4881
▁skilled	-11.4887
▁Engaging	-11.4892
▁instant	-11.4892
▁massive	-11.4894
▁bumped	-11.4904
▁University	-11.4904
▁victory	-11.4904
▁blowing	-11.4906
▁delv	-11.4908
Woof	-11.4909
▁Access	-11.4917
▁waving	-11.4918
▁comment	-11.4918
▁sip	-11.492
▁stair	-11.4921
therapy	-11.4924
▁relaxation	-11.4926
▁praise	-11.493
▁producing	-11.493
Yeah	-11.493
breast	-11.4931
▁equally	-11.4936
▁scan	-11.4938
▁manipulation	-11.4942
▁Visual	-11.4942
▁winner	-11.4947
▁Idea	-11.4951
▁wound	-11.4957
▁Island	-11.4958
▁sparkle	-11.4959
▁mindful	-11.4968
▁wiggle	-11.4968
▁therapist	-11.4969
▁quest	-11.4969
ken	-11.498
▁vivid	-11.498
▁infection	-11.4981
▁Provid	-11.4981
AN	-11.4988
ji	-11.4989
▁counsel	-11.4993
▁pursuing	-11.4993
▁snippet	-11.4993
▁shrugged	-11.4993
▁daisy	-11.5006
▁gesture	-11.5006
▁Israel	-11.5019
wise	-11.5028
cla	-11.503
▁sacred	-11.5031
▁Discover	-11.5032
▁competing	-11.5044
▁Danny	-11.5045
▁solar	-11.5049
▁Sounds	-11.5061
▁burned	-11.5073
▁meta	-11.5076
▁website	-11.5077
▁debate	-11.5077
▁sensitivity	-11.5083
driven	-11.5089
▁preservation	-11.5096
▁workshops	-11.5096
Spec	-11.5097
▁Penny	-11.5109
▁investing	-11.5109
▁agents	-11.5117
Physical	-11.5121
▁purchase	-11.5121
▁Gene	-11.5123
▁passionate	-11.5125
ique	-11.5126
run	-11.5126
▁Back	-11.5134
▁bouncing	-11.5134
▁sprinkle	-11.5134
▁utilizing	-11.5134
fusion	-11.5135
▁Gigi	-11.5147
▁twisted	-11.5154
▁printer	-11.5157
▁International	-11.516
▁enthusiasm	-11.5173
▁phenomenon	-11.5173
▁poverty	-11.5173
▁upstairs	-11.5173
▁Korea	-11.5173
▁masterpiece	-11.5173
▁San	-11.518
SD	-11.5184
Goodbye	-11.5186
▁expert	-11.5195
ego	-11.5202
▁west	-11.521
▁expansion	-11.5212
▁memorable	-11.5212
add	-11.5213
▁Pal	-11.522
▁boast	-11.5225
▁ethics	-11.5225
▁striking	-11.5225
ima	-11.5235
▁Encouraging	-11.5238
▁Communication	-11.5238
▁organisms	-11.5238
▁index	-11.5239
▁delivering	-11.524
▁shown	-11.524
▁measured	-11.5243
▁West	-11.5247
▁fallen	-11.5251
CT	-11.5256
Po	-11.5257
▁agencies	-11.5264
▁forgotten	-11.5271
ami	-11.5276
▁Importance	-11.5277
▁blink	-11.5285
▁solved	-11.5287
▁exit	-11.5302
▁Wednesday	-11.5303
▁funds	-11.531
▁scenario	-11.5315
ML	-11.5323
▁persist	-11.5328
▁geo	-11.5328
▁Technology	-11.533
▁spices	-11.533
▁Environmental	-11.5333
▁German	-11.5334
▁detection	-11.5334
▁whatever	-11.5339
▁prior	-11.5342
▁rural	-11.5344
NA	-11.5346
▁enjoyable	-11.5352
▁Movement	-11.5356
▁mice	-11.5358
▁functionality	-11.5361
▁Fac	-11.5368
▁segment	-11.5369
aut	-11.538
▁availability	-11.5383
▁description	-11.5383
▁evaluating	-11.5383
▁snail	-11.5383
▁viewers	-11.539
▁Sunday	-11.5396
▁illuminate	-11.5409
▁burning	-11.5421
▁dresses	-11.5422
▁Park	-11.5424
▁Hold	-11.5428
▁jogged	-11.5437
▁Bounce	-11.5437
▁relief	-11.5438
SE	-11.5445
▁Literature	-11.5449
▁advancing	-11.5449
▁Spark	-11.5449
▁capturing	-11.5462
▁uncertainty	-11.5463
circ	-11.5465
▁foundational	-11.5466
▁fewer	-11.5467
▁domestic	-11.5476
▁dominant	-11.5476
▁heightened	-11.5476
▁ownership	-11.5481
▁Light	-11.5502
▁snowball	-11.5503
▁sex	-11.5506
izer	-11.5513
publish	-11.5516
▁eliminat	-11.5516
▁agency	-11.5516
▁shopkeeper	-11.5516
DE	-11.5529
▁hesitate	-11.553
▁Tip	-11.5545
▁compute	-11.555
▁Women	-11.5557
▁relaxed	-11.5557
▁grid	-11.5562
down	-11.5563
▁cape	-11.5566
▁maximum	-11.557
▁vulnerable	-11.557
▁ease	-11.5573
ault	-11.5578
▁prayed	-11.5579
▁Program	-11.5584
▁assets	-11.5585
▁Moral	-11.5588
▁audio	-11.5588
▁Land	-11.5592
▁borders	-11.5597
▁husband	-11.5597
▁negotiation	-11.5597
▁romantic	-11.5597
▁Multi	-11.5597
▁greet	-11.5604
▁Empire	-11.561
▁nuances	-11.561
▁unfamiliar	-11.561
▁unfold	-11.561
▁controlling	-11.5618
▁Assess	-11.5624
▁Hop	-11.5626
▁neighbour	-11.5637
oh	-11.5643
▁highest	-11.5659
▁precision	-11.5664
▁claws	-11.5665
anthrop	-11.5665
▁fictional	-11.5666
▁sculpture	-11.5678
▁committed	-11.5679
▁paused	-11.5688
▁horizon	-11.5691
▁immune	-11.5692
▁Tony	-11.5698
itarian	-11.5705
▁double	-11.5706
▁react	-11.5711
OS	-11.5713
▁classical	-11.5719
▁companion	-11.5719
▁luxury	-11.5719
▁referred	-11.5722
▁Japan	-11.5733
▁yawned	-11.574
▁inclusion	-11.5747
▁Most	-11.5752
▁immersive	-11.576
▁tactics	-11.576
▁assume	-11.5761
▁mention	-11.5766
▁Service	-11.5774
▁interactive	-11.5779
▁regime	-11.5781
action	-11.5783
▁sustain	-11.5785
▁Show	-11.5787
▁manipulate	-11.5788
bar	-11.579
lash	-11.5794
Lucy	-11.5796
▁Papa	-11.5796
▁Elly	-11.5805
▁Kate	-11.5814
▁Network	-11.5815
▁optimization	-11.5829
▁proposed	-11.5829
▁yucky	-11.5829
pin	-11.5839
▁gaming	-11.5843
fish	-11.5846
▁shouting	-11.5847
▁critic	-11.5848
▁Friends	-11.5848
▁Snowy	-11.5852
▁folded	-11.5856
even	-11.5857
▁viewpoints	-11.5857
▁consciousness	-11.5857
▁generally	-11.5857
▁investors	-11.5858
▁Pay	-11.5858
▁Different	-11.5871
▁meticulous	-11.5871
▁intrigue	-11.5871
▁shifting	-11.5873
PA	-11.5875
▁hyper	-11.5885
▁articles	-11.5889
▁petals	-11.59
▁Home	-11.5901
gree	-11.5902
▁mitigate	-11.5913
▁injury	-11.5913
▁million	-11.5915
▁Game	-11.5916
▁constructive	-11.5917
▁Italian	-11.5927
▁immediate	-11.5929
rank	-11.593
law	-11.5932
▁employment	-11.5933
▁tickle	-11.5934
▁babies	-11.5941
▁cyber	-11.5941
▁Prepare	-11.5941
▁annual	-11.5941
▁adapting	-11.5947
▁pave	-11.595
▁distract	-11.5955
▁childhood	-11.5956
▁Enter	-11.5957
▁boost	-11.5969
conduc	-11.597
makers	-11.5972
▁Liz	-11.5973
▁broad	-11.5979
▁cues	-11.5983
▁State	-11.599
▁advantage	-11.5994
▁Monitor	-11.5997
▁spill	-11.6007
▁9:	-11.6011
▁Ruby	-11.6012
▁perceived	-11.6018
Sara	-11.6018
▁Enjoy	-11.6025
▁cautious	-11.6025
▁literacy	-11.6025
Character	-11.6025
▁Tilly	-11.6026
▁Master	-11.603
▁strain	-11.603
▁wink	-11.6035
▁spike	-11.6039
▁floated	-11.6044
▁Germany	-11.6049
▁distribute	-11.6053
▁glance	-11.6053
▁exceptional	-11.6053
▁residents	-11.6067
▁month	-11.608
▁criteria	-11.6081
▁desert	-11.6082
▁stuffed	-11.6082
▁portion	-11.6085
▁Control	-11.6094
▁Muslim	-11.6096
▁intentional	-11.6096
CD	-11.6109
▁corresponding	-11.6109
▁Public	-11.611
▁emphasis	-11.611
▁institution	-11.6111
▁advance	-11.6112
bol	-11.6123
▁neither	-11.6124
▁stroke	-11.6124
▁whistled	-11.6128
unit	-11.6129
▁objective	-11.613
▁Hand	-11.6133
▁melted	-11.6136
cover	-11.6146
▁systemic	-11.6147
▁chart	-11.6149
▁average	-11.6167
▁Regular	-11.617
▁comparing	-11.6181
wood	-11.6183
▁Snow	-11.6203
umble	-11.6205
▁except	-11.621
▁Squeaky	-11.621
▁simulation	-11.621
▁Sandy	-11.6211
▁translate	-11.6211
▁Wal	-11.6214
▁Google	-11.6224
▁Millie	-11.6224
▁blueberry	-11.6224
,000	-11.6225
▁boss	-11.623
▁impossible	-11.6239
▁settled	-11.625
▁Stories	-11.6253
▁thriving	-11.6253
▁Fast	-11.6256
▁Fri	-11.6263
▁completed	-11.6263
▁developers	-11.6266
Surprise	-11.6268
▁zigzag	-11.6268
▁terrain	-11.6282
▁Revolution	-11.6284
▁Function	-11.6297
▁Tuesday	-11.6297
▁mobile	-11.6297
▁numerical	-11.6297
▁complement	-11.6311
▁marine	-11.6311
▁housing	-11.6326
▁chaos	-11.6326
▁Ensur	-11.6331
Spirit	-11.634
▁Meet	-11.6341
▁accomplishment	-11.6347
tock	-11.635
▁concentration	-11.6355
▁federal	-11.6355
▁interplay	-11.6356
These	-11.6359
▁oneself	-11.6359
▁Fifi	-11.637
▁philosophical	-11.6384
▁thoroughly	-11.6386
▁forced	-11.639
▁distinctive	-11.639
▁talented	-11.6409
▁retain	-11.6413
▁trapped	-11.6414
▁harmonious	-11.6428
▁Disorder	-11.6428
▁entails	-11.6428
▁Para	-11.644
▁Johnson	-11.6441
▁Mittens	-11.6443
width	-11.6443
▁involvement	-11.6453
▁velvet	-11.6458
▁garlic	-11.6458
▁Emerg	-11.6458
anda	-11.6462
▁controlled	-11.6464
▁Bible	-11.6467
▁Test	-11.6467
▁hour	-11.647
▁pertain	-11.6472
▁compound	-11.6472
▁personalized	-11.648
▁drama	-11.6486
▁gratitude	-11.6487
▁Finny	-11.6489
heat	-11.6493
▁mono	-11.6496
▁appreciating	-11.6502
▁Business	-11.6502
▁Emotion	-11.6502
▁bang	-11.6514
▁autonomy	-11.6517
▁Everything	-11.6517
▁Cam	-11.6518
▁destroyed	-11.6519
▁Method	-11.6531
▁vroom	-11.6533
▁Teach	-11.6533
▁released	-11.6536
word	-11.6544
▁sacrific	-11.6546
versus	-11.6547
▁delightful	-11.655
▁manual	-11.6559
▁Eastern	-11.6561
▁captain	-11.6561
▁Pan	-11.6567
weight	-11.6569
▁Ancient	-11.6576
▁fascinated	-11.6576
▁sensation	-11.6576
▁protective	-11.6577
▁Mind	-11.6587
▁Super	-11.6594
new	-11.6595
▁aesthetics	-11.6596
▁household	-11.6604
▁disabilities	-11.6607
▁conducted	-11.6611
▁twisty	-11.6612
ER	-11.6615
fall	-11.6618
▁Church	-11.6621
▁steep	-11.6621
▁fitness	-11.6624
▁prevention	-11.6624
▁seamlessly	-11.663
▁Community	-11.6636
▁unlike	-11.6641
▁Reading	-11.6651
▁published	-11.6651
▁elevat	-11.6662
▁muddy	-11.6672
▁database	-11.6681
▁warrant	-11.6681
▁defense	-11.6681
▁kill	-11.6682
▁recommended	-11.6686
▁Regularly	-11.6693
▁fault	-11.6698
Acc	-11.67
▁occasion	-11.6711
▁facilities	-11.6711
▁consent	-11.6712
Bob	-11.6715
▁Pur	-11.6719
aste	-11.6722
▁bouncy	-11.6726
▁vanish	-11.674
▁selected	-11.6744
Life	-11.6751
▁territories	-11.6757
direct	-11.6757
▁adjustments	-11.6759
▁Setting	-11.6761
▁Making	-11.6764
that	-11.6764
credibly	-11.6772
▁Civil	-11.6772
▁Guidelines	-11.6772
▁poppy	-11.6773
▁confusion	-11.6773
▁maximize	-11.6796
▁integrated	-11.6798
▁Behind	-11.6802
▁magnificent	-11.6802
▁vessel	-11.6802
▁bias	-11.6817
▁immigrant	-11.6818
▁variety	-11.6818
▁socioeconomic	-11.6818
▁vanished	-11.6821
▁dared	-11.6821
box	-11.6826
▁disparate	-11.6833
▁growl	-11.6835
▁visualize	-11.6838
▁Basic	-11.6849
▁mama	-11.6853
▁poster	-11.6854
▁protocols	-11.6864
▁candidate	-11.6864
▁quack	-11.6865
▁sniff	-11.6876
▁Renaissance	-11.6879
▁gaze	-11.6882
▁manufacturing	-11.6894
▁reputation	-11.6894
▁odd	-11.6896
▁pest	-11.6901
▁Mor	-11.6907
▁Prince	-11.691
▁growled	-11.691
▁plain	-11.6911
▁Also	-11.6912
▁Wally	-11.6912
▁purr	-11.6913
▁visualization	-11.6915
▁advocacy	-11.6925
▁introduction	-11.6925
▁queer	-11.6926
▁organizational	-11.6929
▁Old	-11.6929
gie	-11.6938
▁Familiariz	-11.6941
▁launch	-11.6941
style	-11.6942
▁similarities	-11.6947
▁supposed	-11.6948
▁excess	-11.6955
▁Global	-11.6956
▁Organization	-11.6956
▁victim	-11.6956
▁nowhere	-11.6972
▁Interaction	-11.6972
▁confidently	-11.6974
▁produced	-11.6975
ius	-11.6982
▁addiction	-11.6987
▁Union	-11.6989
▁loyalty	-11.6991
▁defining	-11.7003
▁Avoid	-11.7018
▁wow	-11.7021
▁Anti	-11.7029
▁distinguish	-11.7034
▁compose	-11.7034
▁director	-11.7034
▁tutorial	-11.7035
▁predictions	-11.7038
AC	-11.7044
label	-11.705
▁Know	-11.705
▁division	-11.7051
▁invention	-11.7051
▁illness	-11.706
▁relatable	-11.7065
▁Material	-11.7065
▁interface	-11.7066
▁stirring	-11.7066
▁nano	-11.7084
90	-11.7095
▁William	-11.7097
▁ancestors	-11.7097
▁quantum	-11.7097
▁wedding	-11.7097
▁Given	-11.7098
source	-11.711
▁conventions	-11.7112
▁narrow	-11.7112
▁survive	-11.7112
▁Drawing	-11.7112
▁architectural	-11.7112
mean	-11.7117
▁probability	-11.7128
▁parameter	-11.7132
▁computational	-11.7133
eva	-11.7135
Run	-11.7136
Ok	-11.7139
▁Rabbit	-11.7144
▁nonfiction	-11.7144
Will	-11.7145
▁constantly	-11.7149
RT	-11.715
▁medieval	-11.716
una	-11.7169
▁consume	-11.7175
▁calculation	-11.7175
▁probably	-11.7175
▁hydro	-11.7178
▁icon	-11.72
▁Russia	-11.72
▁removed	-11.7201
▁breeze	-11.7207
▁Canadian	-11.7207
▁Slowly	-11.7207
esteem	-11.7207
▁(201	-11.7207
▁breathtaking	-11.7223
▁revenue	-11.7223
–	-11.7226
roll	-11.7232
▁Mother	-11.7242
augh	-11.7243
▁spatial	-11.7255
ED	-11.7261
▁commit	-11.7262
RA	-11.727
▁Congratulations	-11.7271
▁Explore	-11.7271
▁generating	-11.7271
ku	-11.7278
▁plea	-11.7278
▁facial	-11.7287
▁Froggy	-11.7287
▁client	-11.7293
▁generated	-11.7294
▁Roll	-11.7295
▁fantasy	-11.7303
▁undergo	-11.7305
burg	-11.7326
▁extensive	-11.7335
▁snuggled	-11.7335
▁Animal	-11.7335
▁dramatic	-11.7336
▁recommendations	-11.7337
▁alcohol	-11.7351
▁Writing	-11.7351
prop	-11.7353
▁surprising	-11.7367
▁pursue	-11.7367
▁aloud	-11.7367
▁clinic	-11.7375
▁intended	-11.7383
▁emissions	-11.7383
▁mailman	-11.7388
arious	-11.7389
▁evoke	-11.74
▁excel	-11.74
▁bold	-11.7409
▁counterparts	-11.7416
▁diagnose	-11.7416
▁fetch	-11.7416
▁batter	-11.7421
▁essay	-11.7432
▁hinder	-11.7432
▁steady	-11.7432
▁concert	-11.7432
▁coast	-11.7443
▁imaging	-11.7448
▁tucked	-11.7465
▁firmly	-11.7469
▁trend	-11.7474
▁diagnostic	-11.7481
▁paddle	-11.7481
▁Press	-11.7488
▁twice	-11.7497
▁authenticity	-11.7501
now	-11.7505
▁gazed	-11.7511
▁stewardship	-11.7514
▁Check	-11.7517
▁flight	-11.7518
▁realizing	-11.7526
▁exacerbat	-11.753
▁transmission	-11.7531
▁Turn	-11.7531
▁philosopher	-11.7546
▁superheroes	-11.7558
▁Defining	-11.7563
Ah	-11.7569
▁entertain	-11.7577
▁embarrass	-11.7578
▁category	-11.7579
▁pearl	-11.7588
▁exploit	-11.7593
▁Nevertheless	-11.7596
▁peel	-11.7596
▁authorities	-11.7615
▁resolve	-11.7615
▁biology	-11.7615
sight	-11.762
▁industrial	-11.7627
▁arguing	-11.7629
▁waist	-11.7629
tersectionality	-11.7633
▁frozen	-11.7646
▁unnecessary	-11.7646
▁proactive	-11.7647
▁cherished	-11.7658
▁agricultural	-11.7662
▁moisture	-11.7662
▁dietary	-11.7664
idge	-11.7667
itis	-11.7691
▁empirical	-11.7695
▁likelihood	-11.7695
▁weaknesses	-11.7695
▁Color	-11.7697
▁citizen	-11.7702
▁manufacturer	-11.7703
▁glasses	-11.7712
▁Seek	-11.7716
▁Sky	-11.7721
rich	-11.7724
▁analyses	-11.7729
▁Foundation	-11.7729
Really	-11.773
▁surgery	-11.7731
uestion	-11.7732
dicating	-11.7735
Without	-11.774
▁unfair	-11.7746
▁Project	-11.7746
▁biodiversity	-11.7746
▁discomfort	-11.7746
▁correspond	-11.7746
▁adherence	-11.7763
curricula	-11.7763
▁stole	-11.7764
▁Steve	-11.7767
▁survey	-11.7779
▁denote	-11.778
▁hum	-11.7789
field	-11.7795
▁grip	-11.7803
national	-11.7804
learn	-11.7808
▁warfare	-11.7813
typical	-11.783
▁statistics	-11.783
▁twin	-11.783
▁Body	-11.7834
prob	-11.7839
serving	-11.7843
▁Maggie	-11.7847
▁Identity	-11.7847
▁silent	-11.7847
Str	-11.7849
▁alignment	-11.7861
▁Curious	-11.7864
▁receiving	-11.7864
▁kisses	-11.7872
▁regression	-11.7881
▁Clear	-11.7881
scape	-11.7887
▁Market	-11.7887
▁Wiggly	-11.7898
▁identified	-11.7898
minded	-11.7908
▁systematic	-11.7916
▁White	-11.7932
▁Rosie	-11.7932
▁snapped	-11.7932
▁Auto	-11.7934
▁DNA	-11.7934
▁Exploration	-11.7949
▁statistical	-11.7949
▁wagging	-11.795
color	-11.7955
▁demographic	-11.7966
▁Economic	-11.7966
▁Objective	-11.7966
▁Beyond	-11.7983
▁beneficial	-11.7983
▁compromise	-11.7983
▁critique	-11.7983
▁Understand	-11.7985
▁spoken	-11.7997
▁flourish	-11.8002
▁camaraderie	-11.8017
▁Group	-11.8017
rick	-11.8022
▁adoption	-11.8032
▁Line	-11.8034
▁captivate	-11.8035
▁triumph	-11.8035
▁Medical	-11.8035
▁pause	-11.8039
▁placing	-11.8052
▁burst	-11.8052
▁logic	-11.8054
▁sexuality	-11.8058
▁Allow	-11.8058
▁accomplish	-11.8061
▁weekend	-11.8072
▁firsthand	-11.8074
▁warn	-11.8086
▁acquisition	-11.8087
▁myriad	-11.8087
▁latest	-11.8095
▁diploma	-11.8104
▁administration	-11.8121
▁revolution	-11.8138
▁Concept	-11.8139
▁General	-11.814
▁explicitly	-11.8145
▁pad	-11.8154
▁Pinky	-11.8156
▁jogging	-11.8158
▁prejudice	-11.8174
▁About	-11.8175
▁adaptive	-11.8179
nutrient	-11.8188
▁radiation	-11.8191
connect	-11.8192
▁urged	-11.8193
greg	-11.8198
▁vote	-11.8208
▁pandemic	-11.8209
▁grappling	-11.8226
▁kitty	-11.8226
▁compliance	-11.8244
▁honk	-11.8245
▁losses	-11.8248
▁pupil	-11.8262
▁Word	-11.8264
holder	-11.8267
▁ecosystem	-11.827
▁Thompson	-11.8279
▁Factors	-11.8279
▁ratio	-11.8294
▁faraway	-11.8297
▁installation	-11.8301
▁vitamin	-11.8315
▁Suzy	-11.8315
▁overwhelming	-11.8315
▁Britain	-11.8332
▁Experience	-11.8332
▁supernatural	-11.8332
▁Fire	-11.8334
▁estate	-11.8334
break	-11.8335
▁Online	-11.8343
▁applicable	-11.835
▁pioneer	-11.835
▁Feeling	-11.835
most	-11.8352
▁batteries	-11.8352
▁allocation	-11.8368
▁Eco	-11.8377
▁embodie	-11.8386
▁spaceship	-11.8393
▁Suppose	-11.8404
▁Offer	-11.8404
rav	-11.8404
▁Micro	-11.841
▁scolded	-11.8422
▁skate	-11.8424
500	-11.8428
▁audit	-11.8432
▁absolute	-11.844
▁completing	-11.844
▁restrictions	-11.8441
▁skipping	-11.8442
▁outcome	-11.8452
▁yeah	-11.8458
discovery	-11.8463
▁intersect	-11.8475
alpha	-11.8476
▁peas	-11.8476
▁spirituality	-11.8484
▁crisis	-11.8494
▁peak	-11.8494
▁activism	-11.8512
▁isolation	-11.8512
Upon	-11.8513
▁aroma	-11.8518
▁Dino	-11.8518
▁north	-11.852
▁==	-11.8527
▁Maintain	-11.853
chemistry	-11.853
▁exclusive	-11.853
▁solidarity	-11.853
▁Four	-11.8536
▁Cool	-11.854
commerce	-11.8548
plication	-11.8559
efficacy	-11.8566
▁explanation	-11.8566
▁harvest	-11.8566
level	-11.8581
▁embedded	-11.8585
▁prevail	-11.8585
abilities	-11.8592
▁seamless	-11.8592
▁Hindu	-11.8603
▁Nature	-11.8607
▁Port	-11.8614
▁Egypt	-11.8614
▁Vietnam	-11.8621
▁renewed	-11.8621
▁Indeed	-11.8621
▁Robert	-11.8622
Exp	-11.8635
▁session	-11.8637
▁vocabulary	-11.8639
▁govern	-11.864
▁exhaust	-11.8658
▁compromising	-11.8658
▁reinforcing	-11.8658
▁versatile	-11.8658
▁transmit	-11.8659
▁Own	-11.8663
▁metrics	-11.8664
▁Islam	-11.8675
▁restrict	-11.8676
▁Family	-11.8676
▁Cross	-11.8676
process	-11.8685
ueen	-11.8686
▁corporate	-11.8694
▁Break	-11.8695
ographies	-11.8698
▁realistic	-11.8706
▁continent	-11.8713
▁adverse	-11.8714
▁rising	-11.8715
▁Russian	-11.8721
▁worship	-11.8731
▁shelves	-11.875
▁tangible	-11.875
▁loan	-11.8753
▁integrate	-11.8755
▁airplane	-11.8769
▁biblical	-11.8769
▁bleeding	-11.8769
▁prime	-11.8769
▁translation	-11.8769
▁Transform	-11.877
▁alright	-11.877
▁Utiliz	-11.8771
▁River	-11.8773
▁sparkling	-11.8773
▁Rocky	-11.8777
▁crumb	-11.8782
▁circuit	-11.8787
▁configuration	-11.8787
▁democracy	-11.8787
▁motivate	-11.8787
▁Hope	-11.8787
partial	-11.8793
awareness	-11.8798
▁taxes	-11.8798
▁Journey	-11.8806
▁boil	-11.8806
▁lush	-11.8808
binary	-11.8818
▁hip	-11.8819
matplotlib	-11.8824
▁Fran	-11.8826
▁execution	-11.8843
▁refugee	-11.8843
▁therapies	-11.8843
▁Directions	-11.8844
present	-11.8851
▁hurried	-11.8862
▁identification	-11.8862
▁scheme	-11.8862
▁provision	-11.8865
▁mythology	-11.8881
▁renowned	-11.8899
▁operator	-11.8902
▁Tuna	-11.8903
▁Someone	-11.8905
▁illnesses	-11.8906
When	-11.8913
▁diligent	-11.8918
▁guarantee	-11.8918
▁huh	-11.8918
▁Converse	-11.8921
▁economies	-11.8937
▁immigration	-11.8937
▁yesterday	-11.8937
predict	-11.8951
▁Analyzing	-11.8956
▁rent	-11.8965
class	-11.8967
▁vulnerability	-11.8975
▁oat	-11.8976
▁layout	-11.8979
▁recover	-11.8988
▁Pain	-11.8991
▁Christmas	-11.8994
▁Government	-11.8994
▁recall	-11.8994
▁crisp	-11.8994
▁preferred	-11.8995
just	-11.9
evolving	-11.9008
through	-11.9009
▁mobility	-11.9013
▁vertical	-11.9013
nvestigating	-11.9013
▁zipped	-11.9014
active	-11.9021
▁establishment	-11.9027
▁Alternative	-11.9032
▁welfare	-11.9032
▁analytics	-11.9032
Protect	-11.9033
operative	-11.9038
▁disability	-11.9038
ggle	-11.9039
▁Excited	-11.9051
▁module	-11.9051
▁unforgettable	-11.9051
▁enforcement	-11.9051
▁retire	-11.9051
▁Spring	-11.9053
▁Photo	-11.9057
▁gradient	-11.907
▁occurred	-11.9072
=1	-11.9072
▁Utilize	-11.9086
45	-11.9088
▁modify	-11.9089
▁Image	-11.9093
▁chill	-11.9096
▁Perhaps	-11.9108
▁refining	-11.9109
▁correlat	-11.9109
▁Considerations	-11.9113
▁historic	-11.9116
▁relation	-11.9121
▁jurisdiction	-11.9128
▁motifs	-11.9128
▁nuclear	-11.9128
▁burden	-11.9128
▁Balancing	-11.9147
▁concrete	-11.9147
▁fertile	-11.9147
▁Something	-11.9147
▁portray	-11.9148
Meow	-11.915
▁Italy	-11.9151
▁revolutioniz	-11.9153
▁principle	-11.9154
▁oppression	-11.9166
▁embody	-11.9166
▁Media	-11.9177
▁confirm	-11.9186
misunderstanding	-11.9186
▁interpersonal	-11.9186
▁opponent	-11.9186
▁renewable	-11.9186
▁stain	-11.9187
▁Gather	-11.9187
biotic	-11.9193
▁minimum	-11.9205
▁Reddit	-11.9205
Unit	-11.9223
▁Special	-11.9224
▁Invest	-11.9225
▁competitor	-11.9244
▁begged	-11.9244
▁spit	-11.9244
▁coastal	-11.9251
giving	-11.9262
▁President	-11.9263
▁inflammation	-11.9263
▁prosperity	-11.9263
▁trading	-11.9263
▁Political	-11.9283
▁responsibly	-11.9283
▁scrap	-11.9284
talk	-11.9291
model	-11.9291
▁caf	-11.9295
▁Rock	-11.9301
▁Children	-11.9302
▁Ingredients	-11.9302
▁Pepper	-11.9302
▁satisfied	-11.9302
▁classification	-11.9307
plant	-11.9309
▁grandmother	-11.9322
▁pathways	-11.9322
▁methodologies	-11.9323
▁footprint	-11.9323
▁punishment	-11.9342
▁Relationship	-11.9342
▁aspirations	-11.9342
▁worries	-11.9342
▁emergence	-11.9342
▁Tree	-11.9343
▁Definition	-11.9361
▁Safety	-11.9361
▁Experiment	-11.9361
▁entry	-11.9362
▁lily	-11.9367
▁adhere	-11.9384
▁ingredient	-11.9393
▁empire	-11.9401
▁puppet	-11.9401
▁proficiency	-11.9401
▁Training	-11.9401
▁inhabitants	-11.9401
MR	-11.9415
▁Ken	-11.942
▁Adventure	-11.9421
▁clarity	-11.9421
▁unwanted	-11.9421
terdisciplinary	-11.9422
▁debt	-11.9441
▁Legal	-11.9442
▁scientist	-11.9453
lastic	-11.9459
▁feminist	-11.946
▁whistling	-11.946
▁circus	-11.946
▁dental	-11.9461
▁interval	-11.9463
keeper	-11.9467
▁progressive	-11.9472
political	-11.9474
▁democratic	-11.948
▁sidewalk	-11.948
▁activist	-11.948
▁ripe	-11.9483
▁nine	-11.9486
▁sketch	-11.95
▁sufficient	-11.95
▁complications	-11.9501
▁hobby	-11.9501
▁necessitat	-11.9505
param	-11.952
▁intimate	-11.952
▁Enhanc	-11.952
▁teasing	-11.9526
CR	-11.9533
▁Juvenile	-11.954
▁molecules	-11.954
▁reliability	-11.954
▁ideologies	-11.954
▁Ven	-11.9546
▁beads	-11.9547
▁Soviet	-11.956
▁deciding	-11.956
▁Hav	-11.9563
trans	-11.957
VR	-11.9572
▁Wisdom	-11.9581
▁wizard	-11.9581
▁imposed	-11.9581
closure	-11.9581
▁Three	-11.9581
▁contemplat	-11.9581
▁evil	-11.9581
▁Arch	-11.9597
▁Association	-11.9621
▁Mexico	-11.9621
▁privilege	-11.9621
▁Policy	-11.9621
▁Mental	-11.9621
▁Local	-11.9623
▁California	-11.9641
▁mitigating	-11.9641
▁Court	-11.9641
▁globalization	-11.9651
▁attraction	-11.9655
▁broaden	-11.9655
▁decline	-11.966
▁champion	-11.9661
▁Foster	-11.9661
▁royal	-11.9661
▁metaphor	-11.9661
▁Therapy	-11.9662
▁electro	-11.9664
▁stew	-11.968
Tech	-11.9681
▁COVID	-11.9682
▁Scientists	-11.9682
▁overwhelmed	-11.9682
▁racism	-11.9682
▁obligat	-11.9702
▁crunchy	-11.9702
▁librarian	-11.9702
▁slavery	-11.9703
solve	-11.972
▁elucidat	-11.9723
▁coefficient	-11.9723
▁cough	-11.9725
▁Significance	-11.9743
▁promotion	-11.9743
▁superior	-11.9743
▁awake	-11.9744
▁coding	-11.9756
▁Benefits	-11.9763
▁boom	-11.9775
▁Frog	-11.9784
▁Catholic	-11.9805
▁Energy	-11.9805
▁Rachel	-11.9805
▁verbal	-11.9805
▁Spain	-11.9806
▁Picture	-11.9825
▁underpinning	-11.9825
▁unsure	-11.9826
▁affordable	-11.9829
▁electron	-11.9837
▁Perspective	-11.9846
▁Leverag	-11.9846
oscop	-11.985
▁territory	-11.9867
▁prioritize	-11.9867
▁Clean	-11.9867
▁reaction	-11.9875
hello	-11.9876
▁Martin	-11.9879
▁architect	-11.9886
▁resembl	-11.9887
▁tick	-11.9901
▁Between	-11.9908
Which	-11.9908
▁empowerment	-11.9919
▁communal	-11.9929
▁antique	-11.9932
▁exploitation	-11.9933
▁Journal	-11.995
▁anticipate	-11.995
▁Limit	-11.9952
▁posture	-11.9957
▁opposite	-11.9971
▁House	-11.9974
▁glimpse	-11.9992
▁Computer	-11.9992
▁folklore	-12.0013
▁legislation	-12.0013
▁arising	-12.0017
▁Deep	-12.0022
▁hormone	-12.0034
▁solace	-12.0034
▁Conflict	-12.0055
▁Structure	-12.0055
▁ancestral	-12.0055
▁chopped	-12.0055
▁entrance	-12.0055
▁molecular	-12.0055
▁affirm	-12.0055
▁pleasure	-12.0055
▁breed	-12.0055
▁intensity	-12.0076
▁resilient	-12.0076
▁visibility	-12.0076
▁satisfy	-12.0097
▁analytical	-12.0097
▁geometric	-12.0097
▁comfortably	-12.0098
ounce	-12.0107
Little	-12.011
▁quantities	-12.0118
▁colonialism	-12.0119
spanning	-12.0119
▁polar	-12.0122
▁broom	-12.0122
▁Lizzy	-12.014
▁hazards	-12.014
▁removing	-12.014
▁proportion	-12.014
▁savor	-12.014
▁gust	-12.0141
knit	-12.0141
▁epic	-12.016
▁Recognizing	-12.0161
▁peculiar	-12.0161
netheless	-12.0161
▁animation	-12.0162
▁titles	-12.0167
▁streamline	-12.0179
igzag	-12.0182
▁supplement	-12.0182
▁Employ	-12.0204
▁Origins	-12.0204
▁admiring	-12.0204
▁necessarily	-12.0225
▁teenager	-12.0225
▁Jeff	-12.0225
fused	-12.0232
▁tirelessly	-12.0247
▁Australian	-12.0255
also	-12.0266
▁horror	-12.0268
▁grey	-12.027
▁revelation	-12.029
▁separation	-12.029
▁episode	-12.0312
▁density	-12.0312
▁execute	-12.0312
▁reject	-12.0334
Symbol	-12.0355
▁stigma	-12.0355
▁recreation	-12.0355
▁Initial	-12.0355
▁bullying	-12.0355
▁violat	-12.0355
▁rival	-12.0355
▁Center	-12.0355
▁allocate	-12.0359
▁Taking	-12.0359
▁automatically	-12.0377
▁trembling	-12.0377
▁amplify	-12.0377
▁Risk	-12.0378
matrix	-12.0394
Remember	-12.0394
▁forecast	-12.0399
▁Evolution	-12.0399
▁frustration	-12.0399
▁Information	-12.0399
▁Rome	-12.04
tergenerational	-12.042
▁Mexican	-12.042
▁tolerance	-12.0421
▁dentist	-12.0421
▁Egyptian	-12.0429
Temp	-12.0429
building	-12.0434
function	-12.0439
which	-12.0439
▁glitter	-12.0442
▁satellite	-12.0442
▁suppress	-12.0442
ntegrating	-12.0458
▁twenty	-12.0464
▁diabetes	-12.0464
▁reproductive	-12.0464
▁scholarship	-12.0464
▁wrist	-12.0464
▁Jan	-12.0474
▁hybrid	-12.0486
▁false	-12.0486
▁Angel	-12.0488
▁protest	-12.049
dependent	-12.0506
▁navigation	-12.0508
▁regulate	-12.0508
behavioral	-12.0511
▁settlers	-12.0512
Next	-12.0528
front	-12.053
▁Intrigued	-12.0531
▁accompanie	-12.0531
▁legacies	-12.0531
▁excite	-12.0538
▁employee	-12.0547
▁conversion	-12.0553
▁Small	-12.0553
▁ripped	-12.0554
▁mold	-12.0556
▁Integration	-12.0575
▁burgeon	-12.0575
▁comparison	-12.0575
▁Present	-12.0575
▁tele	-12.0576
▁Pippa	-12.0576
▁dollars	-12.0576
▁clarify	-12.0597
▁describing	-12.0597
▁constitution	-12.0597
▁department	-12.0597
▁homo	-12.0612
▁degradation	-12.062
▁surveillance	-12.062
▁Period	-12.062
optional	-12.0631
▁Bree	-12.0633
▁brainstorm	-12.0642
▁hypo	-12.0642
please	-12.0643
▁wobble	-12.0664
▁passenger	-12.0664
▁priorities	-12.0666
▁Michael	-12.0687
▁algebra	-12.0687
▁Team	-12.069
▁Principle	-12.0709
▁adolescent	-12.0709
▁fossil	-12.0709
▁Natural	-12.0709
▁Repeat	-12.0709
▁-------	-12.0714
▁enterprise	-12.0732
disciplinary	-12.0753
▁occupation	-12.0755
▁Katie	-12.0755
▁Past	-12.0763
▁grace	-12.0771
▁Machine	-12.0777
▁resort	-12.0777
▁sweat	-12.0778
▁Professional	-12.08
▁continuity	-12.08
▁enchanting	-12.08
▁Determine	-12.0823
▁Financial	-12.0823
▁veggies	-12.0823
▁rubbing	-12.0823
▁Year	-12.0825
▁matrices	-12.0846
▁vintage	-12.0846
▁slave	-12.0867
▁warrior	-12.0869
▁slapped	-12.0869
▁frosting	-12.0891
▁blur	-12.0892
0.0	-12.091
▁defeat	-12.0917
Happy	-12.0918
depth	-12.0918
▁laptop	-12.0937
▁vocal	-12.0938
▁nerve	-12.0938
▁recess	-12.0938
expression	-12.0942
Just	-12.0942
▁accommodate	-12.0961
▁cinema	-12.0962
Would	-12.0965
▁Pacific	-12.0984
▁Carefully	-12.0984
▁password	-12.0984
▁Australia	-12.0998
▁Implications	-12.1007
▁ladybug	-12.1007
▁retention	-12.1007
▁Still	-12.1007
▁Blink	-12.1007
▁persistence	-12.1009
▁Construct	-12.1034
▁Santa	-12.1037
▁amazement	-12.1053
▁deploy	-12.1053
▁Essential	-12.1077
▁duration	-12.1077
eight	-12.1077
▁clip	-12.109
▁residential	-12.11
▁Adult	-12.11
digit	-12.1101
▁Standard	-12.1124
▁believing	-12.1124
▁conference	-12.1124
▁doubt	-12.1125
▁occasionally	-12.1125
▁Similar	-12.1136
▁coexist	-12.1147
▁communicating	-12.1147
▁credibility	-12.1171
▁cotton	-12.1171
▁rational	-12.1188
▁graduate	-12.1194
▁accommodation	-12.1218
▁destruction	-12.1218
▁Divide	-12.1218
▁Irish	-12.1218
stream	-12.1227
▁athletic	-12.1242
▁striving	-12.1242
▁discern	-12.1242
▁Ocean	-12.1266
▁purchasing	-12.1266
▁pricing	-12.1266
▁crises	-12.1266
▁Buddhism	-12.129
▁Gradually	-12.129
▁prevalent	-12.129
▁releasing	-12.129
▁visible	-12.129
▁compress	-12.129
▁Stitch	-12.1291
▁Milly	-12.1292
random	-12.13
▁Companies	-12.1314
▁caution	-12.1314
▁coordination	-12.1314
▁neglect	-12.1314
▁zookeeper	-12.1314
worth	-12.1325
▁Knowledge	-12.1338
▁leap	-12.1338
mulating	-12.1355
▁dimension	-12.1362
▁Climate	-12.1362
▁introspection	-12.1362
▁throat	-12.1362
▁varied	-12.1362
▁Adjust	-12.1362
alytic	-12.1371
▁Collaborative	-12.1386
▁bunnies	-12.1386
▁exotic	-12.1386
▁homemade	-12.1386
▁grinned	-12.141
▁Consult	-12.141
▁Direct	-12.141
▁neo	-12.1429
▁Cultivat	-12.1434
▁Chicky	-12.1434
▁Critical	-12.1434
▁president	-12.1434
▁prison	-12.1434
▁draft	-12.1434
▁cherish	-12.144
▁semina	-12.1446
▁optimizing	-12.1458
▁augment	-12.1458
Yummy	-12.1459
▁Wild	-12.1461
▁prolong	-12.1463
solution	-12.1468
▁eagle	-12.1483
▁Abigail	-12.1507
▁Comprehensive	-12.1507
▁Medicine	-12.1507
▁controversial	-12.1507
▁Representation	-12.1507
▁sentiment	-12.1507
▁mainstream	-12.1507
▁converge	-12.1508
▁crew	-12.151
▁nonprofit	-12.1531
▁utilization	-12.1531
▁Louis	-12.1532
▁intertwine	-12.1556
evolutionary	-12.1562
▁stumble	-12.1567
True	-12.1571
▁comfy	-12.1581
▁Talk	-12.1582
▁exemplifie	-12.1605
▁sovereignty	-12.1605
▁stroll	-12.1605
▁scroll	-12.1606
▁downstairs	-12.163
▁gravity	-12.163
▁grief	-12.163
▁Splash	-12.163
▁imbalance	-12.1655
▁humility	-12.1655
▁roast	-12.1655
▁vanilla	-12.1655
riving	-12.1655
friend	-12.166
▁abandon	-12.1679
▁Buddhist	-12.1679
▁paradigm	-12.1679
▁transgender	-12.1679
▁obey	-12.1679
Figure	-12.168
▁continuing	-12.1704
▁enforc	-12.1704
▁fees	-12.1705
Kitty	-12.1722
▁election	-12.1729
▁articulat	-12.1731
▁Successful	-12.1741
▁channel	-12.1743
▁Exercise	-12.1754
▁indispensable	-12.1754
▁unprecedented	-12.1754
▁Depend	-12.1754
▁Operation	-12.1755
▁analog	-12.176
▁Inspired	-12.1779
▁interrupt	-12.1779
▁Custom	-12.1779
▁Emphasi	-12.1779
▁Susan	-12.1781
▁setbacks	-12.1805
▁plug	-12.1805
▁Julie	-12.1832
▁Security	-12.1855
▁Virtual	-12.1855
▁textbook	-12.1855
▁sale	-12.1875
▁Individual	-12.188
▁neutral	-12.1906
▁traction	-12.1906
▁woven	-12.1906
▁Tools	-12.1906
▁Featur	-12.1915
▁frequent	-12.192
Example	-12.1926
▁subgenre	-12.1931
▁fluctuations	-12.1932
▁beamed	-12.1932
▁hygiene	-12.1957
▁insufficient	-12.1957
▁Novel	-12.1957
▁contend	-12.1957
▁Sleep	-12.1982
▁universities	-12.1982
▁cousin	-12.1982
▁Jacob	-12.1982
▁swift	-12.2008
▁Analyze	-12.2008
▁Greece	-12.2008
▁activation	-12.2008
▁derivative	-12.2008
mathb	-12.2013
John	-12.2031
▁Expression	-12.2033
▁Relevance	-12.2033
▁compatibility	-12.2033
▁steer	-12.2034
▁Serve	-12.2056
▁uncertain	-12.2058
▁temporary	-12.2059
▁grammar	-12.2059
▁Wood	-12.2061
▁suppose	-12.2072
length	-12.2083
determination	-12.2083
▁Velvet	-12.2085
▁reconciliation	-12.2085
▁educate	-12.2085
▁applies	-12.2085
▁Adopt	-12.2086
▁ultimate	-12.21
▁concentrate	-12.2111
▁adhering	-12.2111
▁drill	-12.2111
▁verify	-12.2111
lateral	-12.2116
▁Behavior	-12.2137
▁Communities	-12.2137
▁pixel	-12.2137
phobia	-12.2137
▁Close	-12.2138
▁Planning	-12.2139
twentieth	-12.2163
▁Society	-12.2163
▁reputable	-12.2163
▁virtue	-12.2163
bird	-12.2189
▁hierarchies	-12.2189
▁indicators	-12.2189
▁intently	-12.2189
threatening	-12.219
▁reconstruct	-12.2215
▁Richard	-12.2215
▁Gently	-12.2215
▁Style	-12.2216
▁horizontal	-12.2217
▁automated	-12.2242
▁kernel	-12.2242
▁Bridg	-12.226
0,000	-12.226
▁untie	-12.2285
▁inhabit	-12.2294
Celebrat	-12.2294
▁decipher	-12.2294
▁gambling	-12.2294
▁rigid	-12.2294
▁vegan	-12.2294
▁portrayals	-12.2294
▁executive	-12.2321
▁familial	-12.2321
▁testament	-12.2321
▁physiological	-12.2321
▁appointment	-12.2347
▁consuming	-12.2347
▁firefighter	-12.2347
▁Martha	-12.2347
▁worn	-12.2347
▁Kids	-12.2348
help	-12.2354
▁definitely	-12.2374
▁geometry	-12.2374
▁Dream	-12.2374
people	-12.2376
▁drift	-12.24
▁smoking	-12.24
▁Document	-12.24
▁hurdles	-12.2427
▁enemy	-12.2427
▁recurring	-12.2427
▁Store	-12.2428
control	-12.2435
▁perceive	-12.2441
▁College	-12.2454
▁Intelligence	-12.2454
▁Turtle	-12.2454
▁compensation	-12.2454
▁enemies	-12.2454
▁automation	-12.2454
▁Sadly	-12.2454
▁Collaboration	-12.2481
▁London	-12.2481
▁imaginary	-12.2481
▁underneath	-12.2481
▁instructor	-12.2482
▁dominate	-12.2486
▁refuse	-12.2495
▁Ethical	-12.2508
▁dignity	-12.2508
sigma	-12.2509
0.5	-12.2529
▁Gaussian	-12.2535
▁grandparents	-12.2535
▁overlooked	-12.2562
▁seafood	-12.2562
▁vaccine	-12.2562
▁devotion	-12.2589
▁displacement	-12.2589
invasive	-12.2589
paced	-12.2607
▁corporations	-12.2616
▁Comics	-12.2617
punk	-12.2618
writing	-12.2623
▁illegal	-12.2644
▁existential	-12.2644
▁Notabl	-12.2651
▁Regardless	-12.2671
▁convenience	-12.2671
▁elegant	-12.2671
▁utility	-12.2671
▁diagnosis	-12.2699
▁elusive	-12.2699
dependence	-12.2701
▁profession	-12.2704
Great	-12.2707
▁drip	-12.2713
▁browser	-12.2726
▁confusing	-12.2726
▁knelt	-12.2726
▁senior	-12.2726
▁Pretty	-12.2726
▁apparent	-12.2726
dynamic	-12.2734
▁elaborate	-12.2754
▁synthetic	-12.2754
▁slimy	-12.2754
▁Graphic	-12.2781
▁Simply	-12.2781
www	-12.2809
▁Squirrel	-12.2809
▁aggressive	-12.2809
▁culminat	-12.2809
▁perpetuate	-12.2809
▁accessories	-12.2809
▁swap	-12.281
▁geopolitic	-12.282
▁administrator	-12.2837
▁suspect	-12.2837
▁versatility	-12.2837
▁sponge	-12.2837
▁welcoming	-12.2837
screen	-12.2847
▁Bouncy	-12.2865
▁arrival	-12.2865
▁securing	-12.2865
▁vowed	-12.2865
▁invisible	-12.2865
▁barely	-12.2865
▁storing	-12.2865
False	-12.2866
American	-12.2875
▁insert	-12.2886
▁Dynamic	-12.2893
▁Urban	-12.2893
▁craftsmanship	-12.2893
▁varieties	-12.2893
Whee	-12.2904
underrepresented	-12.2921
▁Preparation	-12.2921
▁equilibrium	-12.2921
▁melodies	-12.2921
▁impairment	-12.2921
▁woof	-12.2921
▁slot	-12.2937
▁convince	-12.2949
▁squeak	-12.2949
▁radical	-12.2949
▁Account	-12.2978
▁longevity	-12.2978
▁prowess	-12.2978
▁deposit	-12.2988
▁vigilant	-12.3006
▁heavier	-12.3034
▁Travel	-12.3034
▁(200	-12.3035
▁predator	-12.3036
shift	-12.3049
▁Decision	-12.3063
▁diminish	-12.3063
▁Sports	-12.3063
▁register	-12.3091
▁affairs	-12.3091
▁revolve	-12.3091
World	-12.3106
▁conquer	-12.312
▁astronaut	-12.3149
▁curriculum	-12.3149
▁fraction	-12.3149
Sometimes	-12.3165
▁Disease	-12.3178
▁cardiovascular	-12.3178
▁identical	-12.3178
▁validation	-12.3178
▁violent	-12.3178
▁reign	-12.3178
▁merge	-12.3189
Bird	-12.3195
ncluding	-12.3202
▁Empathy	-12.3206
▁durability	-12.3206
▁happiest	-12.3206
▁spectrum	-12.3206
▁comprise	-12.3206
▁drone	-12.3207
▁Component	-12.3235
▁Important	-12.3235
▁ceramic	-12.3235
▁BCE	-12.3235
portrait	-12.3235
▁swallow	-12.3235
▁teem	-12.3236
▁erupt	-12.3236
#	-12.4678
“	-13.8801
